{
  "version": "1.0",
  "truncation": null,
  "padding": null,
  "added_tokens": [
    {
      "id": 0,
      "content": "<PAD>",
      "single_word": false,
      "lstrip": false,
      "rstrip": false,
      "normalized": false,
      "special": true
    },
    {
      "id": 1,
      "content": "<UNK>",
      "single_word": false,
      "lstrip": false,
      "rstrip": false,
      "normalized": false,
      "special": true
    },
    {
      "id": 2,
      "content": "<BOS>",
      "single_word": false,
      "lstrip": false,
      "rstrip": false,
      "normalized": false,
      "special": true
    },
    {
      "id": 3,
      "content": "<EOS>",
      "single_word": false,
      "lstrip": false,
      "rstrip": false,
      "normalized": false,
      "special": true
    },
    {
      "id": 4,
      "content": "<GAP>",
      "single_word": false,
      "lstrip": false,
      "rstrip": false,
      "normalized": false,
      "special": true
    },
    {
      "id": 5,
      "content": "<ANS>",
      "single_word": false,
      "lstrip": false,
      "rstrip": false,
      "normalized": false,
      "special": true
    },
    {
      "id": 6,
      "content": "<SEP>",
      "single_word": false,
      "lstrip": false,
      "rstrip": false,
      "normalized": false,
      "special": true
    },
    {
      "id": 7,
      "content": "d",
      "single_word": false,
      "lstrip": false,
      "rstrip": false,
      "normalized": false,
      "special": true
    },
    {
      "id": 8,
      "content": "dh",
      "single_word": false,
      "lstrip": false,
      "rstrip": false,
      "normalized": false,
      "special": true
    },
    {
      "id": 9,
      "content": "db",
      "single_word": false,
      "lstrip": false,
      "rstrip": false,
      "normalized": false,
      "special": true
    },
    {
      "id": 10,
      "content": "p1",
      "single_word": false,
      "lstrip": false,
      "rstrip": false,
      "normalized": false,
      "special": true
    },
    {
      "id": 11,
      "content": "p2",
      "single_word": false,
      "lstrip": false,
      "rstrip": false,
      "normalized": false,
      "special": true
    },
    {
      "id": 12,
      "content": "p3",
      "single_word": false,
      "lstrip": false,
      "rstrip": false,
      "normalized": false,
      "special": true
    },
    {
      "id": 13,
      "content": "p4",
      "single_word": false,
      "lstrip": false,
      "rstrip": false,
      "normalized": false,
      "special": true
    },
    {
      "id": 14,
      "content": "p5",
      "single_word": false,
      "lstrip": false,
      "rstrip": false,
      "normalized": false,
      "special": true
    },
    {
      "id": 15,
      "content": "p6",
      "single_word": false,
      "lstrip": false,
      "rstrip": false,
      "normalized": false,
      "special": true
    },
    {
      "id": 16,
      "content": "cc",
      "single_word": false,
      "lstrip": false,
      "rstrip": false,
      "normalized": false,
      "special": true
    },
    {
      "id": 17,
      "content": "f",
      "single_word": false,
      "lstrip": false,
      "rstrip": false,
      "normalized": false,
      "special": true
    },
    {
      "id": 18,
      "content": "cbr",
      "single_word": false,
      "lstrip": false,
      "rstrip": false,
      "normalized": false,
      "special": true
    },
    {
      "id": 19,
      "content": "sm",
      "single_word": false,
      "lstrip": false,
      "rstrip": false,
      "normalized": false,
      "special": true
    },
    {
      "id": 20,
      "content": "BET_0",
      "single_word": false,
      "lstrip": false,
      "rstrip": false,
      "normalized": false,
      "special": true
    },
    {
      "id": 21,
      "content": "BET_1",
      "single_word": false,
      "lstrip": false,
      "rstrip": false,
      "normalized": false,
      "special": true
    },
    {
      "id": 22,
      "content": "BET_2",
      "single_word": false,
      "lstrip": false,
      "rstrip": false,
      "normalized": false,
      "special": true
    },
    {
      "id": 23,
      "content": "BET_3",
      "single_word": false,
      "lstrip": false,
      "rstrip": false,
      "normalized": false,
      "special": true
    },
    {
      "id": 24,
      "content": "BET_4",
      "single_word": false,
      "lstrip": false,
      "rstrip": false,
      "normalized": false,
      "special": true
    },
    {
      "id": 25,
      "content": "BET_5",
      "single_word": false,
      "lstrip": false,
      "rstrip": false,
      "normalized": false,
      "special": true
    },
    {
      "id": 26,
      "content": "BET_6",
      "single_word": false,
      "lstrip": false,
      "rstrip": false,
      "normalized": false,
      "special": true
    },
    {
      "id": 27,
      "content": "BET_7",
      "single_word": false,
      "lstrip": false,
      "rstrip": false,
      "normalized": false,
      "special": true
    },
    {
      "id": 28,
      "content": "BET_8",
      "single_word": false,
      "lstrip": false,
      "rstrip": false,
      "normalized": false,
      "special": true
    },
    {
      "id": 29,
      "content": "BET_9",
      "single_word": false,
      "lstrip": false,
      "rstrip": false,
      "normalized": false,
      "special": true
    },
    {
      "id": 30,
      "content": "BET_10",
      "single_word": false,
      "lstrip": false,
      "rstrip": false,
      "normalized": false,
      "special": true
    },
    {
      "id": 31,
      "content": "BET_11",
      "single_word": false,
      "lstrip": false,
      "rstrip": false,
      "normalized": false,
      "special": true
    },
    {
      "id": 32,
      "content": "BET_12",
      "single_word": false,
      "lstrip": false,
      "rstrip": false,
      "normalized": false,
      "special": true
    },
    {
      "id": 33,
      "content": "BET_13",
      "single_word": false,
      "lstrip": false,
      "rstrip": false,
      "normalized": false,
      "special": true
    },
    {
      "id": 34,
      "content": "BET_14",
      "single_word": false,
      "lstrip": false,
      "rstrip": false,
      "normalized": false,
      "special": true
    },
    {
      "id": 35,
      "content": "BET_15",
      "single_word": false,
      "lstrip": false,
      "rstrip": false,
      "normalized": false,
      "special": true
    },
    {
      "id": 36,
      "content": "BET_16",
      "single_word": false,
      "lstrip": false,
      "rstrip": false,
      "normalized": false,
      "special": true
    },
    {
      "id": 37,
      "content": "BET_17",
      "single_word": false,
      "lstrip": false,
      "rstrip": false,
      "normalized": false,
      "special": true
    },
    {
      "id": 38,
      "content": "BET_18",
      "single_word": false,
      "lstrip": false,
      "rstrip": false,
      "normalized": false,
      "special": true
    },
    {
      "id": 39,
      "content": "BET_19",
      "single_word": false,
      "lstrip": false,
      "rstrip": false,
      "normalized": false,
      "special": true
    },
    {
      "id": 40,
      "content": "BET_20",
      "single_word": false,
      "lstrip": false,
      "rstrip": false,
      "normalized": false,
      "special": true
    },
    {
      "id": 41,
      "content": "BET_21",
      "single_word": false,
      "lstrip": false,
      "rstrip": false,
      "normalized": false,
      "special": true
    },
    {
      "id": 42,
      "content": "BET_22",
      "single_word": false,
      "lstrip": false,
      "rstrip": false,
      "normalized": false,
      "special": true
    },
    {
      "id": 43,
      "content": "BET_23",
      "single_word": false,
      "lstrip": false,
      "rstrip": false,
      "normalized": false,
      "special": true
    },
    {
      "id": 44,
      "content": "BET_24",
      "single_word": false,
      "lstrip": false,
      "rstrip": false,
      "normalized": false,
      "special": true
    },
    {
      "id": 45,
      "content": "BET_25",
      "single_word": false,
      "lstrip": false,
      "rstrip": false,
      "normalized": false,
      "special": true
    },
    {
      "id": 46,
      "content": "BET_26",
      "single_word": false,
      "lstrip": false,
      "rstrip": false,
      "normalized": false,
      "special": true
    },
    {
      "id": 47,
      "content": "BET_27",
      "single_word": false,
      "lstrip": false,
      "rstrip": false,
      "normalized": false,
      "special": true
    },
    {
      "id": 48,
      "content": "BET_28",
      "single_word": false,
      "lstrip": false,
      "rstrip": false,
      "normalized": false,
      "special": true
    },
    {
      "id": 49,
      "content": "BET_29",
      "single_word": false,
      "lstrip": false,
      "rstrip": false,
      "normalized": false,
      "special": true
    },
    {
      "id": 50,
      "content": "BET_30",
      "single_word": false,
      "lstrip": false,
      "rstrip": false,
      "normalized": false,
      "special": true
    },
    {
      "id": 51,
      "content": "BET_31",
      "single_word": false,
      "lstrip": false,
      "rstrip": false,
      "normalized": false,
      "special": true
    },
    {
      "id": 52,
      "content": "BET_32",
      "single_word": false,
      "lstrip": false,
      "rstrip": false,
      "normalized": false,
      "special": true
    },
    {
      "id": 53,
      "content": "BET_33",
      "single_word": false,
      "lstrip": false,
      "rstrip": false,
      "normalized": false,
      "special": true
    },
    {
      "id": 54,
      "content": "BET_34",
      "single_word": false,
      "lstrip": false,
      "rstrip": false,
      "normalized": false,
      "special": true
    },
    {
      "id": 55,
      "content": "BET_35",
      "single_word": false,
      "lstrip": false,
      "rstrip": false,
      "normalized": false,
      "special": true
    },
    {
      "id": 56,
      "content": "BET_36",
      "single_word": false,
      "lstrip": false,
      "rstrip": false,
      "normalized": false,
      "special": true
    },
    {
      "id": 57,
      "content": "BET_37",
      "single_word": false,
      "lstrip": false,
      "rstrip": false,
      "normalized": false,
      "special": true
    },
    {
      "id": 58,
      "content": "BET_38",
      "single_word": false,
      "lstrip": false,
      "rstrip": false,
      "normalized": false,
      "special": true
    },
    {
      "id": 59,
      "content": "BET_39",
      "single_word": false,
      "lstrip": false,
      "rstrip": false,
      "normalized": false,
      "special": true
    },
    {
      "id": 60,
      "content": "BET_40",
      "single_word": false,
      "lstrip": false,
      "rstrip": false,
      "normalized": false,
      "special": true
    },
    {
      "id": 61,
      "content": "BET_41",
      "single_word": false,
      "lstrip": false,
      "rstrip": false,
      "normalized": false,
      "special": true
    },
    {
      "id": 62,
      "content": "BET_42",
      "single_word": false,
      "lstrip": false,
      "rstrip": false,
      "normalized": false,
      "special": true
    },
    {
      "id": 63,
      "content": "BET_43",
      "single_word": false,
      "lstrip": false,
      "rstrip": false,
      "normalized": false,
      "special": true
    },
    {
      "id": 64,
      "content": "BET_44",
      "single_word": false,
      "lstrip": false,
      "rstrip": false,
      "normalized": false,
      "special": true
    },
    {
      "id": 65,
      "content": "BET_45",
      "single_word": false,
      "lstrip": false,
      "rstrip": false,
      "normalized": false,
      "special": true
    },
    {
      "id": 66,
      "content": "BET_46",
      "single_word": false,
      "lstrip": false,
      "rstrip": false,
      "normalized": false,
      "special": true
    },
    {
      "id": 67,
      "content": "BET_47",
      "single_word": false,
      "lstrip": false,
      "rstrip": false,
      "normalized": false,
      "special": true
    },
    {
      "id": 68,
      "content": "BET_48",
      "single_word": false,
      "lstrip": false,
      "rstrip": false,
      "normalized": false,
      "special": true
    },
    {
      "id": 69,
      "content": "BET_49",
      "single_word": false,
      "lstrip": false,
      "rstrip": false,
      "normalized": false,
      "special": true
    },
    {
      "id": 70,
      "content": "BET_50",
      "single_word": false,
      "lstrip": false,
      "rstrip": false,
      "normalized": false,
      "special": true
    },
    {
      "id": 71,
      "content": "BET_51",
      "single_word": false,
      "lstrip": false,
      "rstrip": false,
      "normalized": false,
      "special": true
    },
    {
      "id": 72,
      "content": "BET_52",
      "single_word": false,
      "lstrip": false,
      "rstrip": false,
      "normalized": false,
      "special": true
    },
    {
      "id": 73,
      "content": "BET_53",
      "single_word": false,
      "lstrip": false,
      "rstrip": false,
      "normalized": false,
      "special": true
    },
    {
      "id": 74,
      "content": "BET_54",
      "single_word": false,
      "lstrip": false,
      "rstrip": false,
      "normalized": false,
      "special": true
    },
    {
      "id": 75,
      "content": "BET_55",
      "single_word": false,
      "lstrip": false,
      "rstrip": false,
      "normalized": false,
      "special": true
    },
    {
      "id": 76,
      "content": "BET_56",
      "single_word": false,
      "lstrip": false,
      "rstrip": false,
      "normalized": false,
      "special": true
    },
    {
      "id": 77,
      "content": "BET_57",
      "single_word": false,
      "lstrip": false,
      "rstrip": false,
      "normalized": false,
      "special": true
    },
    {
      "id": 78,
      "content": "BET_58",
      "single_word": false,
      "lstrip": false,
      "rstrip": false,
      "normalized": false,
      "special": true
    },
    {
      "id": 79,
      "content": "BET_59",
      "single_word": false,
      "lstrip": false,
      "rstrip": false,
      "normalized": false,
      "special": true
    },
    {
      "id": 80,
      "content": "BET_60",
      "single_word": false,
      "lstrip": false,
      "rstrip": false,
      "normalized": false,
      "special": true
    },
    {
      "id": 81,
      "content": "BET_61",
      "single_word": false,
      "lstrip": false,
      "rstrip": false,
      "normalized": false,
      "special": true
    },
    {
      "id": 82,
      "content": "BET_62",
      "single_word": false,
      "lstrip": false,
      "rstrip": false,
      "normalized": false,
      "special": true
    },
    {
      "id": 83,
      "content": "BET_63",
      "single_word": false,
      "lstrip": false,
      "rstrip": false,
      "normalized": false,
      "special": true
    },
    {
      "id": 84,
      "content": "2c",
      "single_word": false,
      "lstrip": false,
      "rstrip": false,
      "normalized": false,
      "special": true
    },
    {
      "id": 85,
      "content": "2d",
      "single_word": false,
      "lstrip": false,
      "rstrip": false,
      "normalized": false,
      "special": true
    },
    {
      "id": 86,
      "content": "2h",
      "single_word": false,
      "lstrip": false,
      "rstrip": false,
      "normalized": false,
      "special": true
    },
    {
      "id": 87,
      "content": "2s",
      "single_word": false,
      "lstrip": false,
      "rstrip": false,
      "normalized": false,
      "special": true
    },
    {
      "id": 88,
      "content": "3c",
      "single_word": false,
      "lstrip": false,
      "rstrip": false,
      "normalized": false,
      "special": true
    },
    {
      "id": 89,
      "content": "3d",
      "single_word": false,
      "lstrip": false,
      "rstrip": false,
      "normalized": false,
      "special": true
    },
    {
      "id": 90,
      "content": "3h",
      "single_word": false,
      "lstrip": false,
      "rstrip": false,
      "normalized": false,
      "special": true
    },
    {
      "id": 91,
      "content": "3s",
      "single_word": false,
      "lstrip": false,
      "rstrip": false,
      "normalized": false,
      "special": true
    },
    {
      "id": 92,
      "content": "4c",
      "single_word": false,
      "lstrip": false,
      "rstrip": false,
      "normalized": false,
      "special": true
    },
    {
      "id": 93,
      "content": "4d",
      "single_word": false,
      "lstrip": false,
      "rstrip": false,
      "normalized": false,
      "special": true
    },
    {
      "id": 94,
      "content": "4h",
      "single_word": false,
      "lstrip": false,
      "rstrip": false,
      "normalized": false,
      "special": true
    },
    {
      "id": 95,
      "content": "4s",
      "single_word": false,
      "lstrip": false,
      "rstrip": false,
      "normalized": false,
      "special": true
    },
    {
      "id": 96,
      "content": "5c",
      "single_word": false,
      "lstrip": false,
      "rstrip": false,
      "normalized": false,
      "special": true
    },
    {
      "id": 97,
      "content": "5d",
      "single_word": false,
      "lstrip": false,
      "rstrip": false,
      "normalized": false,
      "special": true
    },
    {
      "id": 98,
      "content": "5h",
      "single_word": false,
      "lstrip": false,
      "rstrip": false,
      "normalized": false,
      "special": true
    },
    {
      "id": 99,
      "content": "5s",
      "single_word": false,
      "lstrip": false,
      "rstrip": false,
      "normalized": false,
      "special": true
    },
    {
      "id": 100,
      "content": "6c",
      "single_word": false,
      "lstrip": false,
      "rstrip": false,
      "normalized": false,
      "special": true
    },
    {
      "id": 101,
      "content": "6d",
      "single_word": false,
      "lstrip": false,
      "rstrip": false,
      "normalized": false,
      "special": true
    },
    {
      "id": 102,
      "content": "6h",
      "single_word": false,
      "lstrip": false,
      "rstrip": false,
      "normalized": false,
      "special": true
    },
    {
      "id": 103,
      "content": "6s",
      "single_word": false,
      "lstrip": false,
      "rstrip": false,
      "normalized": false,
      "special": true
    },
    {
      "id": 104,
      "content": "7c",
      "single_word": false,
      "lstrip": false,
      "rstrip": false,
      "normalized": false,
      "special": true
    },
    {
      "id": 105,
      "content": "7d",
      "single_word": false,
      "lstrip": false,
      "rstrip": false,
      "normalized": false,
      "special": true
    },
    {
      "id": 106,
      "content": "7h",
      "single_word": false,
      "lstrip": false,
      "rstrip": false,
      "normalized": false,
      "special": true
    },
    {
      "id": 107,
      "content": "7s",
      "single_word": false,
      "lstrip": false,
      "rstrip": false,
      "normalized": false,
      "special": true
    },
    {
      "id": 108,
      "content": "8c",
      "single_word": false,
      "lstrip": false,
      "rstrip": false,
      "normalized": false,
      "special": true
    },
    {
      "id": 109,
      "content": "8d",
      "single_word": false,
      "lstrip": false,
      "rstrip": false,
      "normalized": false,
      "special": true
    },
    {
      "id": 110,
      "content": "8h",
      "single_word": false,
      "lstrip": false,
      "rstrip": false,
      "normalized": false,
      "special": true
    },
    {
      "id": 111,
      "content": "8s",
      "single_word": false,
      "lstrip": false,
      "rstrip": false,
      "normalized": false,
      "special": true
    },
    {
      "id": 112,
      "content": "9c",
      "single_word": false,
      "lstrip": false,
      "rstrip": false,
      "normalized": false,
      "special": true
    },
    {
      "id": 113,
      "content": "9d",
      "single_word": false,
      "lstrip": false,
      "rstrip": false,
      "normalized": false,
      "special": true
    },
    {
      "id": 114,
      "content": "9h",
      "single_word": false,
      "lstrip": false,
      "rstrip": false,
      "normalized": false,
      "special": true
    },
    {
      "id": 115,
      "content": "9s",
      "single_word": false,
      "lstrip": false,
      "rstrip": false,
      "normalized": false,
      "special": true
    },
    {
      "id": 116,
      "content": "Tc",
      "single_word": false,
      "lstrip": false,
      "rstrip": false,
      "normalized": false,
      "special": true
    },
    {
      "id": 117,
      "content": "Td",
      "single_word": false,
      "lstrip": false,
      "rstrip": false,
      "normalized": false,
      "special": true
    },
    {
      "id": 118,
      "content": "Th",
      "single_word": false,
      "lstrip": false,
      "rstrip": false,
      "normalized": false,
      "special": true
    },
    {
      "id": 119,
      "content": "Ts",
      "single_word": false,
      "lstrip": false,
      "rstrip": false,
      "normalized": false,
      "special": true
    },
    {
      "id": 120,
      "content": "Jc",
      "single_word": false,
      "lstrip": false,
      "rstrip": false,
      "normalized": false,
      "special": true
    },
    {
      "id": 121,
      "content": "Jd",
      "single_word": false,
      "lstrip": false,
      "rstrip": false,
      "normalized": false,
      "special": true
    },
    {
      "id": 122,
      "content": "Jh",
      "single_word": false,
      "lstrip": false,
      "rstrip": false,
      "normalized": false,
      "special": true
    },
    {
      "id": 123,
      "content": "Js",
      "single_word": false,
      "lstrip": false,
      "rstrip": false,
      "normalized": false,
      "special": true
    },
    {
      "id": 124,
      "content": "Qc",
      "single_word": false,
      "lstrip": false,
      "rstrip": false,
      "normalized": false,
      "special": true
    },
    {
      "id": 125,
      "content": "Qd",
      "single_word": false,
      "lstrip": false,
      "rstrip": false,
      "normalized": false,
      "special": true
    },
    {
      "id": 126,
      "content": "Qh",
      "single_word": false,
      "lstrip": false,
      "rstrip": false,
      "normalized": false,
      "special": true
    },
    {
      "id": 127,
      "content": "Qs",
      "single_word": false,
      "lstrip": false,
      "rstrip": false,
      "normalized": false,
      "special": true
    },
    {
      "id": 128,
      "content": "Kc",
      "single_word": false,
      "lstrip": false,
      "rstrip": false,
      "normalized": false,
      "special": true
    },
    {
      "id": 129,
      "content": "Kd",
      "single_word": false,
      "lstrip": false,
      "rstrip": false,
      "normalized": false,
      "special": true
    },
    {
      "id": 130,
      "content": "Kh",
      "single_word": false,
      "lstrip": false,
      "rstrip": false,
      "normalized": false,
      "special": true
    },
    {
      "id": 131,
      "content": "Ks",
      "single_word": false,
      "lstrip": false,
      "rstrip": false,
      "normalized": false,
      "special": true
    },
    {
      "id": 132,
      "content": "Ac",
      "single_word": false,
      "lstrip": false,
      "rstrip": false,
      "normalized": false,
      "special": true
    },
    {
      "id": 133,
      "content": "Ad",
      "single_word": false,
      "lstrip": false,
      "rstrip": false,
      "normalized": false,
      "special": true
    },
    {
      "id": 134,
      "content": "Ah",
      "single_word": false,
      "lstrip": false,
      "rstrip": false,
      "normalized": false,
      "special": true
    },
    {
      "id": 135,
      "content": "As",
      "single_word": false,
      "lstrip": false,
      "rstrip": false,
      "normalized": false,
      "special": true
    },
    {
      "id": 136,
      "content": "|",
      "single_word": false,
      "lstrip": false,
      "rstrip": false,
      "normalized": false,
      "special": true
    }
  ],
  "normalizer": null,
  "pre_tokenizer": {
    "type": "Whitespace"
  },
  "post_processor": null,
  "decoder": null,
  "model": {
    "type": "BPE",
    "dropout": null,
    "unk_token": "<UNK>",
    "continuing_subword_prefix": null,
    "end_of_word_suffix": null,
    "fuse_unk": false,
    "byte_fallback": false,
    "ignore_merges": false,
    "vocab": {
      "<PAD>": 0,
      "<UNK>": 1,
      "<BOS>": 2,
      "<EOS>": 3,
      "<GAP>": 4,
      "<ANS>": 5,
      "<SEP>": 6,
      "d": 7,
      "dh": 8,
      "db": 9,
      "p1": 10,
      "p2": 11,
      "p3": 12,
      "p4": 13,
      "p5": 14,
      "p6": 15,
      "cc": 16,
      "f": 17,
      "cbr": 18,
      "sm": 19,
      "BET_0": 20,
      "BET_1": 21,
      "BET_2": 22,
      "BET_3": 23,
      "BET_4": 24,
      "BET_5": 25,
      "BET_6": 26,
      "BET_7": 27,
      "BET_8": 28,
      "BET_9": 29,
      "BET_10": 30,
      "BET_11": 31,
      "BET_12": 32,
      "BET_13": 33,
      "BET_14": 34,
      "BET_15": 35,
      "BET_16": 36,
      "BET_17": 37,
      "BET_18": 38,
      "BET_19": 39,
      "BET_20": 40,
      "BET_21": 41,
      "BET_22": 42,
      "BET_23": 43,
      "BET_24": 44,
      "BET_25": 45,
      "BET_26": 46,
      "BET_27": 47,
      "BET_28": 48,
      "BET_29": 49,
      "BET_30": 50,
      "BET_31": 51,
      "BET_32": 52,
      "BET_33": 53,
      "BET_34": 54,
      "BET_35": 55,
      "BET_36": 56,
      "BET_37": 57,
      "BET_38": 58,
      "BET_39": 59,
      "BET_40": 60,
      "BET_41": 61,
      "BET_42": 62,
      "BET_43": 63,
      "BET_44": 64,
      "BET_45": 65,
      "BET_46": 66,
      "BET_47": 67,
      "BET_48": 68,
      "BET_49": 69,
      "BET_50": 70,
      "BET_51": 71,
      "BET_52": 72,
      "BET_53": 73,
      "BET_54": 74,
      "BET_55": 75,
      "BET_56": 76,
      "BET_57": 77,
      "BET_58": 78,
      "BET_59": 79,
      "BET_60": 80,
      "BET_61": 81,
      "BET_62": 82,
      "BET_63": 83,
      "2c": 84,
      "2d": 85,
      "2h": 86,
      "2s": 87,
      "3c": 88,
      "3d": 89,
      "3h": 90,
      "3s": 91,
      "4c": 92,
      "4d": 93,
      "4h": 94,
      "4s": 95,
      "5c": 96,
      "5d": 97,
      "5h": 98,
      "5s": 99,
      "6c": 100,
      "6d": 101,
      "6h": 102,
      "6s": 103,
      "7c": 104,
      "7d": 105,
      "7h": 106,
      "7s": 107,
      "8c": 108,
      "8d": 109,
      "8h": 110,
      "8s": 111,
      "9c": 112,
      "9d": 113,
      "9h": 114,
      "9s": 115,
      "Tc": 116,
      "Td": 117,
      "Th": 118,
      "Ts": 119,
      "Jc": 120,
      "Jd": 121,
      "Jh": 122,
      "Js": 123,
      "Qc": 124,
      "Qd": 125,
      "Qh": 126,
      "Qs": 127,
      "Kc": 128,
      "Kd": 129,
      "Kh": 130,
      "Ks": 131,
      "Ac": 132,
      "Ad": 133,
      "Ah": 134,
      "As": 135,
      "|": 136,
      "0": 137,
      "1": 138,
      "2": 139,
      "3": 140,
      "4": 141,
      "5": 142,
      "6": 143,
      "7": 144,
      "8": 145,
      "9": 146,
      "A": 147,
      "J": 148,
      "K": 149,
      "Q": 150,
      "T": 151,
      "b": 152,
      "c": 153,
      "h": 154,
      "m": 155,
      "p": 156,
      "r": 157,
      "s": 158,
      "br": 159,
      "00": 160,
      "15": 161,
      "25": 162,
      "35": 163,
      "10": 164,
      "45": 165,
      "20": 166,
      "95": 167,
      "30": 168,
      "40": 169,
      "65": 170,
      "75": 171,
      "85": 172,
      "60": 173,
      "70": 174,
      "80": 175,
      "90": 176,
      "900": 177,
      "9900": 178,
      "50": 179,
      "55": 180,
      "11": 181,
      "12": 182,
      "13": 183,
      "14": 184,
      "16": 185,
      "17": 186,
      "18": 187,
      "800": 188,
      "19": 189,
      "21": 190,
      "22": 191,
      "23": 192,
      "24": 193,
      "26": 194,
      "100": 195,
      "350": 196,
      "9800": 197,
      "94": 198,
      "27": 199,
      "355": 200,
      "305": 201,
      "405": 202,
      "450": 203,
      "315": 204,
      "28": 205,
      "455": 206,
      "250": 207,
      "375": 208,
      "29": 209,
      "365": 210,
      "275": 211,
      "395": 212,
      "385": 213,
      "320": 214,
      "310": 215,
      "300": 216,
      "390": 217,
      "285": 218,
      "255": 219,
      "295": 220,
      "370": 221,
      "265": 222,
      "330": 223,
      "380": 224,
      "360": 225,
      "400": 226,
      "270": 227,
      "340": 228,
      "290": 229,
      "31": 230,
      "325": 231,
      "280": 232,
      "345": 233,
      "415": 234,
      "420": 235,
      "465": 236,
      "335": 237,
      "36": 238,
      "410": 239,
      "260": 240,
      "37": 241,
      "430": 242,
      "425": 243,
      "475": 244,
      "495": 245,
      "460": 246,
      "485": 247,
      "480": 248,
      "440": 249,
      "435": 250,
      "470": 251,
      "490": 252,
      "39": 253,
      "215": 254,
      "38": 255,
      "245": 256,
      "445": 257,
      "41": 258,
      "46": 259,
      "200": 260,
      "47": 261,
      "240": 262,
      "220": 263,
      "235": 264,
      "230": 265,
      "225": 266,
      "210": 267,
      "48": 268,
      "49": 269,
      "605": 270,
      "57": 271,
      "96": 272,
      "51": 273,
      "56": 274,
      "58": 275,
      "59": 276,
      "950": 277,
      "500": 278,
      "850": 279,
      "66": 280,
      "650": 281,
      "61": 282,
      "205": 283,
      "67": 284,
      "505": 285,
      "515": 286,
      "71": 287,
      "69": 288,
      "68": 289,
      "510": 290,
      "655": 291,
      "76": 292,
      "77": 293,
      "78": 294,
      "705": 295,
      "150": 296,
      "750": 297,
      "530": 298,
      "520": 299,
      "600": 300,
      "525": 301,
      "81": 302,
      "535": 303,
      "79": 304,
      "540": 305,
      "575": 306,
      "91": 307,
      "580": 308,
      "610": 309,
      "585": 310,
      "545": 311,
      "560": 312,
      "555": 313,
      "550": 314,
      "615": 315,
      "590": 316,
      "87": 317,
      "595": 318,
      "570": 319,
      "755": 320,
      "565": 321,
      "805": 322,
      "620": 323,
      "630": 324,
      "855": 325,
      "88": 326,
      "905": 327,
      "195": 328,
      "635": 329,
      "625": 330,
      "700": 331,
      "89": 332,
      "640": 333,
      "155": 334,
      "AhAd": 335,
      "AsAc": 336,
      "AhAs": 337,
      "660": 338,
      "KcKd": 339,
      "QdQh": 340,
      "AsAd": 341,
      "QsQc": 342,
      "KsKc": 343,
      "AdAc": 344,
      "JcJh": 345,
      "AsAh": 346,
      "AhAc": 347,
      "QcQd": 348,
      "TsTd": 349,
      "695": 350,
      "JdJh": 351,
      "AcAs": 352,
      "KdKc": 353,
      "AcAd": 354,
      "AdAs": 355,
      "KdKs": 356,
      "JcJs": 357,
      "670": 358,
      "JdJs": 359,
      "710": 360,
      "QdQs": 361,
      "KhKd": 362,
      "QsQh": 363,
      "QhQs": 364,
      "KdKh": 365,
      "KhKs": 366,
      "KhKc": 367,
      "KsKd": 368,
      "KsKh": 369,
      "TsTh": 370,
      "QcQh": 371,
      "QhQc": 372,
      "JhJc": 373,
      "AcAh": 374,
      "AdAh": 375,
      "TcTs": 376,
      "JdJc": 377,
      "ThTd": 378,
      "KcKs": 379,
      "ThTs": 380,
      "QdQc": 381,
      "JsJc": 382,
      "QcQs": 383,
      "JsJd": 384,
      "QhQd": 385,
      "645": 386,
      "AhJh": 387,
      "TdTh": 388,
      "KcKh": 389,
      "665": 390,
      "8c8s": 391,
      "QsQd": 392,
      "AcQc": 393,
      "AhQh": 394,
      "7d7h": 395,
      "690": 396,
      "TsTc": 397,
      "TcTh": 398,
      "9s9h": 399,
      "8h8d": 400,
      "KcQc": 401,
      "ThTc": 402,
      "JhJs": 403,
      "ThKh": 404,
      "TcTd": 405,
      "QhAd": 406,
      "675": 407,
      "680": 408,
      "JcJd": 409,
      "9h9s": 410,
      "KdAc": 411,
      "AhJs": 412,
      "8c8d": 413,
      "QdKc": 414,
      "QdAd": 415,
      "AdKd": 416,
      "8d8s": 417,
      "9d9c": 418,
      "AsKc": 419,
      "JsJh": 420,
      "KhQd": 421,
      "TdTs": 422,
      "QcKs": 423,
      "9dAd": 424,
      "TdAc": 425,
      "8h8s": 426,
      "TdTc": 427,
      "7h7c": 428,
      "KcAs": 429,
      "AdJs": 430,
      "TsQs": 431,
      "TcAd": 432,
      "Ah7h": 433,
      "9h9d": 434,
      "6d6c": 435,
      "6s6c": 436,
      "8cAc": 437,
      "9h9c": 438,
      "AsJs": 439,
      "AsKd": 440,
      "JhJd": 441,
      "JcKh": 442,
      "JhQc": 443,
      "AdKh": 444,
      "AhJd": 445,
      "9c9h": 446,
      "9cKc": 447,
      "QhKh": 448,
      "JsTh": 449,
      "8d8h": 450,
      "TdAd": 451,
      "AcKh": 452,
      "7c7s": 453,
      "QcTc": 454,
      "9dKd": 455,
      "QcKc": 456,
      "720": 457,
      "6s6h": 458,
      "9c9s": 459,
      "AsJd": 460,
      "685": 461,
      "TdKd": 462,
      "TsJs": 463,
      "KhJc": 464,
      "6d6h": 465,
      "8dAd": 466,
      "Jh8h": 467,
      "AhJc": 468,
      "KdAd": 469,
      "KsAh": 470,
      "KdJs": 471,
      "6h6c": 472,
      "9sQs": 473,
      "JhTh": 474,
      "JhQh": 475,
      "AcKc": 476,
      "KhQh": 477,
      "9sJc": 478,
      "AcKs": 479,
      "5dAd": 480,
      "AsTs": 481,
      "8d8c": 482,
      "9s9c": 483,
      "QdJd": 484,
      "Jc9c": 485,
      "KhAh": 486,
      "7s7h": 487,
      "QcAc": 488,
      "QdAs": 489,
      "TsAs": 490,
      "8h8c": 491,
      "9c9d": 492,
      "TsKs": 493,
      "TsAc": 494,
      "JhKh": 495,
      "Qs9s": 496,
      "JcAc": 497,
      "AhKc": 498,
      "AhKs": 499,
      "7c7h": 500,
      "KhAc": 501,
      "7c7d": 502,
      "Ad2d": 503,
      "As6s": 504,
      "KcJc": 505,
      "8sJs": 506,
      "TcJd": 507,
      "6c6h": 508,
      "QsAs": 509,
      "AsQs": 510,
      "9d9h": 511,
      "5d5s": 512,
      "ThAc": 513,
      "JhAs": 514,
      "KsAd": 515,
      "9d9s": 516,
      "7d7s": 517,
      "9d8d": 518,
      "JhQs": 519,
      "QcKh": 520,
      "KsAc": 521,
      "9hAh": 522,
      "As3s": 523,
      "KdJd": 524,
      "8c8h": 525,
      "JsTs": 526,
      "AsQd": 527,
      "9sTc": 528,
      "KdTh": 529,
      "7d7c": 530,
      "JdAd": 531,
      "KcAd": 532,
      "Ah5h": 533,
      "6hAs": 534,
      "5s7s": 535,
      "9dAs": 536,
      "JdKd": 537,
      "KsQs": 538,
      "JdQd": 539,
      "JsQd": 540,
      "QcAs": 541,
      "KdJh": 542,
      "KcQs": 543,
      "KhTc": 544,
      "AcQh": 545,
      "AcQs": 546,
      "9d7s": 547,
      "9hQs": 548,
      "AcJc": 549,
      "Ac7c": 550,
      "7h8h": 551,
      "TdKs": 552,
      "Kh9h": 553,
      "TsQh": 554,
      "AhTh": 555,
      "KdQh": 556,
      "Kh7h": 557,
      "AdJd": 558,
      "9dJd": 559,
      "Ac5s": 560,
      "8s8d": 561,
      "TcJs": 562,
      "KdJc": 563,
      "QdTd": 564,
      "QsAd": 565,
      "7c6c": 566,
      "KhAs": 567,
      "9hJd": 568,
      "TdQh": 569,
      "TsAd": 570,
      "Kc7s": 571,
      "Kh7d": 572,
      "Ks7h": 573,
      "8cAd": 574,
      "3c3d": 575,
      "7d6d": 576,
      "8s8h": 577,
      "QcTh": 578,
      "7d9c": 579,
      "QhJh": 580,
      "TcKc": 581,
      "QcJd": 582,
      "QdAc": 583,
      "QhKs": 584,
      "Ad5d": 585,
      "6d6s": 586,
      "TcAh": 587,
      "9dKs": 588,
      "9hKh": 589,
      "AhQs": 590,
      "8hQd": 591,
      "TsKd": 592,
      "4sAs": 593,
      "QcTd": 594,
      "4h4d": 595,
      "JdKs": 596,
      "JsKc": 597,
      "5sAs": 598,
      "6hAd": 599,
      "Js7s": 600,
      "JsAs": 601,
      "Kc9c": 602,
      "3dAd": 603,
      "4h4s": 604,
      "3sKh": 605,
      "7cAd": 606,
      "JhKd": 607,
      "Ah9h": 608,
      "9dQh": 609,
      "KcQh": 610,
      "KsJd": 611,
      "Th7h": 612,
      "JcTc": 613,
      "QsAc": 614,
      "KhAd": 615,
      "JhAc": 616,
      "Qs3s": 617,
      "3cQc": 618,
      "6h6d": 619,
      "7s8d": 620,
      "5hAh": 621,
      "7dAd": 622,
      "8sAd": 623,
      "9dTd": 624,
      "4hAh": 625,
      "8sAc": 626,
      "9c7c": 627,
      "JcQh": 628,
      "JsQh": 629,
      "As4s": 630,
      "As5c": 631,
      "9hTh": 632,
      "KsTs": 633,
      "AcTd": 634,
      "JsQc": 635,
      "Kd7d": 636,
      "Kd9s": 637,
      "5c5d": 638,
      "6c6d": 639,
      "Tc9h": 640,
      "JdQh": 641,
      "6sAh": 642,
      "ThAd": 643,
      "As4c": 644,
      "5sKs": 645,
      "TcQd": 646,
      "JhKs": 647,
      "JcTs": 648,
      "QdKh": 649,
      "Kd9c": 650,
      "Kd9h": 651,
      "7sAd": 652,
      "9s8d": 653,
      "9s9d": 654,
      "9sAh": 655,
      "TdJd": 656,
      "Ac3s": 657,
      "7sJs": 658,
      "JhAh": 659,
      "AsKh": 660,
      "8cKc": 661,
      "AdQs": 662,
      "AdKc": 663,
      "5s5d": 664,
      "6s8s": 665,
      "8hTs": 666,
      "Kd6d": 667,
      "8d9d": 668,
      "ThAh": 669,
      "QcTs": 670,
      "6sKs": 671,
      "7hKs": 672,
      "8hAh": 673,
      "9hTc": 674,
      "QcAh": 675,
      "2sAs": 676,
      "5c5h": 677,
      "TdQd": 678,
      "JhQd": 679,
      "JcQd": 680,
      "QhJd": 681,
      "KdQd": 682,
      "6sTs": 683,
      "Kh5h": 684,
      "4cAh": 685,
      "4c4s": 686,
      "6cAh": 687,
      "QsKs": 688,
      "Ac8c": 689,
      "7sKd": 690,
      "JcKs": 691,
      "Kc4d": 692,
      "As9d": 693,
      "9hTs": 694,
      "QcKd": 695,
      "KhJh": 696,
      "7s7d": 697,
      "9cTc": 698,
      "TdAs": 699,
      "4d6d": 700,
      "7cAh": 701,
      "8hKd": 702,
      "Qc7c": 703,
      "KcTc": 704,
      "JdTh": 705,
      "JhAd": 706,
      "8dTd": 707,
      "9cAc": 708,
      "9dQd": 709,
      "Jc8s": 710,
      "Js8s": 711,
      "JsKd": 712,
      "QhAh": 713,
      "As5s": 714,
      "5cAd": 715,
      "5dKs": 716,
      "6hAh": 717,
      "7s9h": 718,
      "9s8s": 719,
      "JsQs": 720,
      "KhTh": 721,
      "2hKs": 722,
      "5dKd": 723,
      "TcAc": 724,
      "9cJh": 725,
      "9sAs": 726,
      "4c4d": 727,
      "9sJd": 728,
      "QdKd": 729,
      "QdAh": 730,
      "Ac9c": 731,
      "8c7c": 732,
      "Qs5s": 733,
      "7hKh": 734,
      "8dJd": 735,
      "8s7s": 736,
      "JcAd": 737,
      "AdJc": 738,
      "8cTc": 739,
      "8d7d": 740,
      "QhTd": 741,
      "KsTc": 742,
      "3hAh": 743,
      "4sAh": 744,
      "9cAs": 745,
      "JsTc": 746,
      "QsKc": 747,
      "Kc3c": 748,
      "4sAd": 749,
      "9h8d": 750,
      "TsQc": 751,
      "QhJs": 752,
      "Kd8h": 753,
      "4hAs": 754,
      "5s5h": 755,
      "9s7s": 756,
      "JhTc": 757,
      "5s5c": 758,
      "7c8c": 759,
      "TdKh": 760,
      "TsJc": 761,
      "JdAc": 762,
      "8hQs": 763,
      "9hQd": 764,
      "9hAc": 765,
      "Kc3h": 766,
      "KsJs": 767,
      "AdQc": 768,
      "6c8c": 769,
      "QhTc": 770,
      "KcAh": 771,
      "9c7d": 772,
      "9sQc": 773,
      "Ts8s": 774,
      "5h8c": 775,
      "KhTd": 776,
      "KhQc": 777,
      "5hAc": 778,
      "8h6s": 779,
      "ThQh": 780,
      "QdJs": 781,
      "8h7h": 782,
      "Ad6s": 783,
      "AdTh": 784,
      "As8c": 785,
      "9d7d": 786,
      "4dKd": 787,
      "7hAc": 788,
      "9dAc": 789,
      "Ks6c": 790,
      "2sQs": 791,
      "7cKd": 792,
      "7h7d": 793,
      "8cAs": 794,
      "TsJd": 795,
      "KcJs": 796,
      "6d5h": 797,
      "6h6s": 798,
      "JcKd": 799,
      "3h9h": 800,
      "3hKs": 801,
      "3sQs": 802,
      "7hJh": 803,
      "9s8c": 804,
      "Jh5h": 805,
      "AdQh": 806,
      "8s6s": 807,
      "Td9h": 808,
      "ThQc": 809,
      "ThKc": 810,
      "QdTc": 811,
      "4d8d": 812,
      "7s9c": 813,
      "JcKc": 814,
      "Kd3d": 815,
      "Kh6s": 816,
      "2s2d": 817,
      "5c5s": 818,
      "9sQh": 819,
      "Jc6h": 820,
      "QsJh": 821,
      "5c4c": 822,
      "5d9d": 823,
      "7s3s": 824,
      "9d5d": 825,
      "QcJs": 826,
      "QdKs": 827,
      "AhTc": 828,
      "8sJd": 829,
      "Qh4h": 830,
      "KcTh": 831,
      "KhQs": 832,
      "3dJd": 833,
      "7cAs": 834,
      "7dTd": 835,
      "JcQs": 836,
      "KcJd": 837,
      "4cTs": 838,
      "4cAd": 839,
      "7cQs": 840,
      "8s8c": 841,
      "Qc9s": 842,
      "KcAc": 843,
      "KsTd": 844,
      "5c2c": 845,
      "8sAs": 846,
      "Ks9d": 847,
      "7cAc": 848,
      "Qd5d": 849,
      "715": 850,
      "6h8h": 851,
      "Jh9h": 852,
      "Ts9c": 853,
      "QhKd": 854,
      "Kh8c": 855,
      "Ad6d": 856,
      "Jd8c": 857,
      "As6d": 858,
      "725": 859,
      "4dAc": 860,
      "5sQs": 861,
      "6cTc": 862,
      "7h6h": 863,
      "Jc9d": 864,
      "JcQc": 865,
      "As7s": 866,
      "3sJd": 867,
      "4c4h": 868,
      "5sQd": 869,
      "6cTs": 870,
      "8dQd": 871,
      "Jh8c": 872,
      "JsAh": 873,
      "Qh2d": 874,
      "6h7h": 875,
      "8sTs": 876,
      "TdAh": 877,
      "2cAc": 878,
      "4cTc": 879,
      "4d7d": 880,
      "6cQs": 881,
      "9cQs": 882,
      "Th3h": 883,
      "7sKs": 884,
      "8hTd": 885,
      "9hKs": 886,
      "9sQd": 887,
      "JdAh": 888,
      "Kc7c": 889,
      "6c6s": 890,
      "7dAh": 891,
      "JcAh": 892,
      "JsAc": 893,
      "Qc7d": 894,
      "2cAd": 895,
      "7sAs": 896,
      "8hKh": 897,
      "9cTs": 898,
      "ThKd": 899,
      "5cAc": 900,
      "Th6h": 901,
      "Jc9h": 902,
      "Qc8c": 903,
      "Kd8d": 904,
      "KhJs": 905,
      "4c5h": 906,
      "8hJh": 907,
      "9s5h": 908,
      "Th9h": 909,
      "3c3s": 910,
      "6sAd": 911,
      "9dKh": 912,
      "9dAh": 913,
      "ThQd": 914,
      "Kc8c": 915,
      "Kd5d": 916,
      "As3h": 917,
      "4sKs": 918,
      "TdQs": 919,
      "Jc8c": 920,
      "AdQd": 921,
      "As7d": 922,
      "As9c": 923,
      "2s7s": 924,
      "5cAh": 925,
      "6c4c": 926,
      "6dQh": 927,
      "7h4h": 928,
      "9sKs": 929,
      "Jh3h": 930,
      "2cQs": 931,
      "8h9h": 932,
      "Jc3c": 933,
      "Kd2d": 934,
      "AcJs": 935,
      "5h5c": 936,
      "QhTs": 937,
      "2s2h": 938,
      "6sQs": 939,
      "7h9h": 940,
      "8dKs": 941,
      "Qh9h": 942,
      "3sKs": 943,
      "5d6d": 944,
      "7h3h": 945,
      "AdTd": 946,
      "AdJh": 947,
      "5h9h": 948,
      "8dKd": 949,
      "9dKc": 950,
      "TcKh": 951,
      "Ts8d": 952,
      "JdQs": 953,
      "3c9c": 954,
      "3d7d": 955,
      "4h3h": 956,
      "5dQd": 957,
      "9sJs": 958,
      "730": 959,
      "2c7c": 960,
      "7s7c": 961,
      "9d8c": 962,
      "5hKd": 963,
      "6s6d": 964,
      "Jd9d": 965,
      "JsKs": 966,
      "AcJd": 967,
      "AsKs": 968,
      "5c4s": 969,
      "JcTd": 970,
      "3dAh": 971,
      "8hQc": 972,
      "ThQs": 973,
      "3c5h": 974,
      "6hKh": 975,
      "8hKc": 976,
      "9sAc": 977,
      "Th9c": 978,
      "2h2c": 979,
      "5s4s": 980,
      "8cJh": 981,
      "Qh9c": 982,
      "AdTs": 983,
      "AdKs": 984,
      "As2s": 985,
      "7dAc": 986,
      "Kd4d": 987,
      "Kh6c": 988,
      "KhJd": 989,
      "Ah7s": 990,
      "3dAc": 991,
      "5d4d": 992,
      "7h9c": 993,
      "8dJh": 994,
      "Jc8d": 995,
      "KdQs": 996,
      "Ad7s": 997,
      "Ad9h": 998,
      "3s3c": 999,
      "7dQc": 1000,
      "Ah6h": 1001,
      "4cKc": 1002,
      "4hQh": 1003,
      "5s8s": 1004,
      "6sAs": 1005,
      "TdJh": 1006,
      "TdJs": 1007,
      "Ts4s": 1008,
      "Ah3h": 1009,
      "6c7s": 1010,
      "8hAc": 1011,
      "As2h": 1012,
      "4c7c": 1013,
      "4h9h": 1014,
      "7h7s": 1015,
      "Th2h": 1016,
      "Kc9d": 1017,
      "2c9c": 1018,
      "5sAh": 1019,
      "Tc6c": 1020,
      "TsQd": 1021,
      "8c9c": 1022,
      "8sJh": 1023,
      "Tc9c": 1024,
      "Jd5d": 1025,
      "QdTs": 1026,
      "Jd8d": 1027,
      "Qc9c": 1028,
      "Kc4c": 1029,
      "2c4c": 1030,
      "3sAc": 1031,
      "6c7c": 1032,
      "6d7d": 1033,
      "6h5h": 1034,
      "8cJs": 1035,
      "8sKh": 1036,
      "9s4s": 1037,
      "Tc6s": 1038,
      "QhAs": 1039,
      "3cKc": 1040,
      "3sAs": 1041,
      "6d4d": 1042,
      "TcAs": 1043,
      "Th8h": 1044,
      "Qc5c": 1045,
      "Ad5h": 1046,
      "3cJc": 1047,
      "3s4s": 1048,
      "9h4h": 1049,
      "ThJc": 1050,
      "2hQh": 1051,
      "TsKh": 1052,
      "Td4d": 1053,
      "Td8c": 1054,
      "Th8s": 1055,
      "Jd2d": 1056,
      "Jh8d": 1057,
      "Qh7s": 1058,
      "Kd8c": 1059,
      "2cKc": 1060,
      "2h2d": 1061,
      "5s6s": 1062,
      "TcJc": 1063,
      "Ts9h": 1064,
      "9dJh": 1065,
      "5s6h": 1066,
      "Jd4d": 1067,
      "JdAs": 1068,
      "Ks7s": 1069,
      "4h9s": 1070,
      "5h6h": 1071,
      "7h8d": 1072,
      "8hAs": 1073,
      "8sJc": 1074,
      "Qc2d": 1075,
      "Kh3h": 1076,
      "7d6c": 1077,
      "Ts7s": 1078,
      "Ah9d": 1079,
      "7d9s": 1080,
      "Js4s": 1081,
      "Qc8h": 1082,
      "Ac2d": 1083,
      "Ad9c": 1084,
      "3hKh": 1085,
      "Th8c": 1086,
      "Qd8s": 1087,
      "KdAs": 1088,
      "Ac6s": 1089,
      "2h2s": 1090,
      "3cAs": 1091,
      "4h4c": 1092,
      "5h6d": 1093,
      "TcKs": 1094,
      "Th4c": 1095,
      "ThAs": 1096,
      "Jh6s": 1097,
      "Jh9d": 1098,
      "Kd7s": 1099,
      "2h5s": 1100,
      "3c2c": 1101,
      "5dKh": 1102,
      "Td3d": 1103,
      "Jh8s": 1104,
      "5hKs": 1105,
      "7c4d": 1106,
      "TcQc": 1107,
      "Td8h": 1108,
      "TsKc": 1109,
      "Jc6c": 1110,
      "Js9h": 1111,
      "4s7s": 1112,
      "5d4c": 1113,
      "5h4s": 1114,
      "6d9h": 1115,
      "7cQh": 1116,
      "8c9d": 1117,
      "Td9d": 1118,
      "JsAd": 1119,
      "QsJd": 1120,
      "4h8h": 1121,
      "5d7d": 1122,
      "7h8s": 1123,
      "8c6c": 1124,
      "8d6d": 1125,
      "Tc7h": 1126,
      "Ad2s": 1127,
      "TcQh": 1128,
      "Td2c": 1129,
      "Qs2d": 1130,
      "KdTs": 1131,
      "Ah7c": 1132,
      "Ah8h": 1133,
      "3s3d": 1134,
      "TsJh": 1135,
      "KsAs": 1136,
      "5s2s": 1137,
      "7d5d": 1138,
      "Ah5s": 1139,
      "5c3c": 1140,
      "6cAs": 1141,
      "6sQc": 1142,
      "8cQc": 1143,
      "8d4d": 1144,
      "9s2s": 1145,
      "AhTd": 1146,
      "5hQd": 1147,
      "7dQd": 1148,
      "9sTs": 1149,
      "Jc7c": 1150,
      "QhAc": 1151,
      "AhQd": 1152,
      "4hKh": 1153,
      "6dQd": 1154,
      "7dAs": 1155,
      "Kc2d": 1156,
      "Kd3c": 1157,
      "Ah5d": 1158,
      "2hQs": 1159,
      "2hAd": 1160,
      "3d3s": 1161,
      "4c9c": 1162,
      "8dAc": 1163,
      "Jh6d": 1164,
      "Js9d": 1165,
      "QhTh": 1166,
      "3c5c": 1167,
      "5h5d": 1168,
      "9sKh": 1169,
      "Tc8c": 1170,
      "Tc8h": 1171,
      "Ts6s": 1172,
      "Kd6h": 1173,
      "KdTd": 1174,
      "2c2d": 1175,
      "9hAd": 1176,
      "Qs9c": 1177,
      "3s5s": 1178,
      "4d5c": 1179,
      "4hJc": 1180,
      "8sTd": 1181,
      "3dKc": 1182,
      "Js5s": 1183,
      "Qh5c": 1184,
      "Qh8h": 1185,
      "Kc6s": 1186,
      "2dAd": 1187,
      "2hKh": 1188,
      "7c4c": 1189,
      "8d5d": 1190,
      "Tc9s": 1191,
      "Jd6h": 1192,
      "Qd6d": 1193,
      "Ah6d": 1194,
      "4h5h": 1195,
      "9hAs": 1196,
      "Qs7s": 1197,
      "Kd9d": 1198,
      "Ks9c": 1199,
      "4d6h": 1200,
      "Jh7h": 1201,
      "Js3s": 1202,
      "Qs9d": 1203,
      "KcTd": 1204,
      "AhQc": 1205,
      "2cAs": 1206,
      "5c8h": 1207,
      "5h7h": 1208,
      "ThJd": 1209,
      "Ts7h": 1210,
      "Ks2s": 1211,
      "KsJc": 1212,
      "3d6d": 1213,
      "5s3s": 1214,
      "8cKh": 1215,
      "Kc8d": 1216,
      "Kc8h": 1217,
      "3cJd": 1218,
      "4cAc": 1219,
      "4hQd": 1220,
      "5dQc": 1221,
      "5sAd": 1222,
      "6cJc": 1223,
      "7c9s": 1224,
      "9h5h": 1225,
      "Qh3c": 1226,
      "Kh6h": 1227,
      "Kh7s": 1228,
      "KsQd": 1229,
      "Ac5d": 1230,
      "4dQd": 1231,
      "9h7s": 1232,
      "Jh9s": 1233,
      "Js9s": 1234,
      "Qh3h": 1235,
      "2c2s": 1236,
      "3d3c": 1237,
      "Jh7d": 1238,
      "Kd2h": 1239,
      "Ah6c": 1240,
      "2cQc": 1241,
      "4dQs": 1242,
      "8c7s": 1243,
      "Td3s": 1244,
      "Th4h": 1245,
      "7cJs": 1246,
      "7d8d": 1247,
      "9h7h": 1248,
      "QhJc": 1249,
      "Kc6d": 1250,
      "Ah2d": 1251,
      "Ah4c": 1252,
      "6h2h": 1253,
      "8s9d": 1254,
      "Qc4h": 1255,
      "Kd5s": 1256,
      "Ad3h": 1257,
      "3cAc": 1258,
      "6h4s": 1259,
      "6h9s": 1260,
      "9hJc": 1261,
      "JhTs": 1262,
      "Qh6d": 1263,
      "Qs8h": 1264,
      "Kh8h": 1265,
      "Ah6s": 1266,
      "5d5h": 1267,
      "6c4s": 1268,
      "8sQd": 1269,
      "QhKc": 1270,
      "7c9c": 1271,
      "7dTs": 1272,
      "9d8s": 1273,
      "Td6d": 1274,
      "Td9c": 1275,
      "Ad5s": 1276,
      "2sAc": 1277,
      "4d4h": 1278,
      "5c3s": 1279,
      "7cQc": 1280,
      "TcQs": 1281,
      "AhTs": 1282,
      "2dJd": 1283,
      "5cJc": 1284,
      "8cQd": 1285,
      "AhKh": 1286,
      "6hQd": 1287,
      "Tc4c": 1288,
      "2d9d": 1289,
      "2dKh": 1290,
      "6cKh": 1291,
      "8c5d": 1292,
      "8dKc": 1293,
      "9s7h": 1294,
      "Jd6d": 1295,
      "Ks3c": 1296,
      "5h8h": 1297,
      "Qh4s": 1298,
      "4dAd": 1299,
      "9h7d": 1300,
      "9hQc": 1301,
      "Jd2s": 1302,
      "6sKh": 1303,
      "6sAc": 1304,
      "8s9c": 1305,
      "Td7d": 1306,
      "4d6c": 1307,
      "5cKh": 1308,
      "9s7c": 1309,
      "KcTs": 1310,
      "KdTc": 1311,
      "4s5s": 1312,
      "9d6d": 1313,
      "9hQh": 1314,
      "AsJh": 1315,
      "AsQc": 1316,
      "2d2s": 1317,
      "4s6s": 1318,
      "5cQs": 1319,
      "5cKs": 1320,
      "8d5s": 1321,
      "9cJc": 1322,
      "JdTc": 1323,
      "2cTc": 1324,
      "6c3s": 1325,
      "9dJc": 1326,
      "9sJh": 1327,
      "5dAc": 1328,
      "6dQs": 1329,
      "6hTh": 1330,
      "7d4d": 1331,
      "Jd9c": 1332,
      "Kc5s": 1333,
      "2sKs": 1334,
      "4s3c": 1335,
      "4sTs": 1336,
      "7c5s": 1337,
      "8dQs": 1338,
      "8sTh": 1339,
      "9dQs": 1340,
      "Ah2h": 1341,
      "2c5h": 1342,
      "3sQd": 1343,
      "4s4c": 1344,
      "6cQd": 1345,
      "7hTh": 1346,
      "JdKh": 1347,
      "AcTh": 1348,
      "AdTc": 1349,
      "2c3h": 1350,
      "2d3h": 1351,
      "4hTh": 1352,
      "5c9c": 1353,
      "6sQd": 1354,
      "Ts2s": 1355,
      "JdQc": 1356,
      "Qh5d": 1357,
      "Qh6h": 1358,
      "Kc9h": 1359,
      "2dAs": 1360,
      "7d8h": 1361,
      "9s6s": 1362,
      "Qh4d": 1363,
      "KcQd": 1364,
      "KsTh": 1365,
      "Ac8d": 1366,
      "Ah3d": 1367,
      "2hJs": 1368,
      "3h3c": 1369,
      "5c3d": 1370,
      "5c4h": 1371,
      "6d2s": 1372,
      "9dJs": 1373,
      "KdQc": 1374,
      "5cJs": 1375,
      "7h5h": 1376,
      "9c7s": 1377,
      "Kh5s": 1378,
      "Ac6c": 1379,
      "2d3d": 1380,
      "9d6c": 1381,
      "Jc5s": 1382,
      "Qh8c": 1383,
      "2cAh": 1384,
      "4h5s": 1385,
      "5c8s": 1386,
      "6dQc": 1387,
      "6s8h": 1388,
      "9sAd": 1389,
      "Jh4d": 1390,
      "Ac3h": 1391,
      "3s3h": 1392,
      "7hTd": 1393,
      "9s8h": 1394,
      "2c7d": 1395,
      "6hTd": 1396,
      "7cTc": 1397,
      "7cJh": 1398,
      "8dAs": 1399,
      "9d8h": 1400,
      "Kc8s": 1401,
      "5hAd": 1402,
      "5sKh": 1403,
      "7hQs": 1404,
      "9h8h": 1405,
      "9hJs": 1406,
      "9s5d": 1407,
      "Jd7d": 1408,
      "2cQd": 1409,
      "4dAs": 1410,
      "6cAc": 1411,
      "7sTs": 1412,
      "8s7d": 1413,
      "JdKc": 1414,
      "4cJs": 1415,
      "7h6d": 1416,
      "9sTh": 1417,
      "3c3h": 1418,
      "6d3h": 1419,
      "6h9c": 1420,
      "7sQs": 1421,
      "9d7c": 1422,
      "9sTd": 1423,
      "Ks5s": 1424,
      "Ks6s": 1425,
      "AcTc": 1426,
      "Ad7d": 1427,
      "4cKh": 1428,
      "6hQh": 1429,
      "8cTh": 1430,
      "JcTh": 1431,
      "Qd9c": 1432,
      "Ad8h": 1433,
      "4cAs": 1434,
      "4sAc": 1435,
      "6dTd": 1436,
      "7h3d": 1437,
      "8d6s": 1438,
      "QdJh": 1439,
      "KcJh": 1440,
      "2h5d": 1441,
      "3sJs": 1442,
      "4d5h": 1443,
      "8dAh": 1444,
      "Jd6c": 1445,
      "Jd7s": 1446,
      "4dTc": 1447,
      "7c8h": 1448,
      "7cKh": 1449,
      "8s9h": 1450,
      "9s4h": 1451,
      "3dKd": 1452,
      "5d8h": 1453,
      "6c5h": 1454,
      "6hAc": 1455,
      "8d5h": 1456,
      "9dQc": 1457,
      "AhKd": 1458,
      "4cQs": 1459,
      "7hJs": 1460,
      "8cQh": 1461,
      "Jc5c": 1462,
      "JcAs": 1463,
      "KsJh": 1464,
      "2c5c": 1465,
      "2dQd": 1466,
      "4sQs": 1467,
      "4sKh": 1468,
      "6dAs": 1469,
      "6h7s": 1470,
      "7h5d": 1471,
      "8s3s": 1472,
      "5h6c": 1473,
      "8dTs": 1474,
      "Ks3d": 1475,
      "2c5d": 1476,
      "4s3s": 1477,
      "6d7s": 1478,
      "6h5s": 1479,
      "8s2s": 1480,
      "QcJh": 1481,
      "Kc3d": 1482,
      "4s2c": 1483,
      "4s4h": 1484,
      "5hKh": 1485,
      "8sKd": 1486,
      "QcAd": 1487,
      "AcKd": 1488,
      "Ah9c": 1489,
      "4d8c": 1490,
      "8sQs": 1491,
      "9d2d": 1492,
      "9hTd": 1493,
      "TcJh": 1494,
      "Th6s": 1495,
      "JdTs": 1496,
      "Qh2c": 1497,
      "Ks8h": 1498,
      "3c8c": 1499,
      "3d2d": 1500,
      "4d4c": 1501,
      "7d4c": 1502,
      "8d4h": 1503,
      "Qc5d": 1504,
      "Kc6c": 1505,
      "4dQh": 1506,
      "4s2s": 1507,
      "7c6s": 1508,
      "7dJc": 1509,
      "7hAh": 1510,
      "7s8h": 1511,
      "4dJd": 1512,
      "5dJs": 1513,
      "5hAs": 1514,
      "6h3h": 1515,
      "7cQd": 1516,
      "8sAh": 1517,
      "Qc3d": 1518,
      "5c8c": 1519,
      "7dKh": 1520,
      "JdTd": 1521,
      "QcJc": 1522,
      "Ks3h": 1523,
      "Ks9s": 1524,
      "Ad8c": 1525,
      "10000": 1526,
      "2h6h": 1527,
      "4d3c": 1528,
      "5cTc": 1529,
      "9hKd": 1530,
      "KsQh": 1531,
      "5dAs": 1532,
      "7dJs": 1533,
      "7h8c": 1534,
      "8d9c": 1535,
      "8dJc": 1536,
      "QsJs": 1537,
      "Ac4c": 1538,
      "6dKd": 1539,
      "7h3c": 1540,
      "Ad9d": 1541,
      "4s9s": 1542,
      "7d3d": 1543,
      "7hTc": 1544,
      "ThJs": 1545,
      "Qh3s": 1546,
      "Ac3c": 1547,
      "Ks5c": 1548,
      "4s6h": 1549,
      "6c3c": 1550,
      "8s5c": 1551,
      "8sTc": 1552,
      "QdJc": 1553,
      "QsTs": 1554,
      "7c5h": 1555,
      "8cKd": 1556,
      "8d7s": 1557,
      "Td7s": 1558,
      "Qc3c": 1559,
      "Ks3s": 1560,
      "2cJc": 1561,
      "2s3h": 1562,
      "5dAh": 1563,
      "JhKc": 1564,
      "Ks2d": 1565,
      "Ad7c": 1566,
      "AsJc": 1567,
      "6d5s": 1568,
      "6s9d": 1569,
      "Ts7d": 1570,
      "Qc3h": 1571,
      "3d6c": 1572,
      "4h7s": 1573,
      "4s2h": 1574,
      "6dKc": 1575,
      "7h9d": 1576,
      "8s5s": 1577,
      "Jh6h": 1578,
      "2d2h": 1579,
      "2dAc": 1580,
      "7h4c": 1581,
      "8h6c": 1582,
      "TcKd": 1583,
      "TdJc": 1584,
      "JsKh": 1585,
      "5sQh": 1586,
      "6s7s": 1587,
      "Th7d": 1588,
      "Kh3s": 1589,
      "Ac8h": 1590,
      "Ah5c": 1591,
      "6s4c": 1592,
      "8s5d": 1593,
      "Th5d": 1594,
      "Ac2c": 1595,
      "Ad5c": 1596,
      "As4h": 1597,
      "9dTs": 1598,
      "Ad3d": 1599,
      "3dAs": 1600,
      "3h3s": 1601,
      "4s4d": 1602,
      "2d9c": 1603,
      "3d4d": 1604,
      "3h4h": 1605,
      "3hTs": 1606,
      "4dTs": 1607,
      "8c6h": 1608,
      "8d6h": 1609,
      "9d5h": 1610,
      "9h5s": 1611,
      "9s6c": 1612,
      "9sKd": 1613,
      "Tc5c": 1614,
      "QsTh": 1615,
      "Ad4c": 1616,
      "2sJs": 1617,
      "Td5d": 1618,
      "Qc2c": 1619,
      "Ks5d": 1620,
      "2sJh": 1621,
      "6s5s": 1622,
      "7hJc": 1623,
      "8s7h": 1624,
      "9c3c": 1625,
      "Td4c": 1626,
      "QsKd": 1627,
      "Ks2h": 1628,
      "AcQd": 1629,
      "6d8d": 1630,
      "7sQd": 1631,
      "9h6c": 1632,
      "As5d": 1633,
      "2sKh": 1634,
      "3hKd": 1635,
      "3s5d": 1636,
      "4h2h": 1637,
      "4sQd": 1638,
      "8cTs": 1639,
      "9c2h": 1640,
      "Qs6s": 1641,
      "Ac9h": 1642,
      "Ah9s": 1643,
      "4h3c": 1644,
      "4s6c": 1645,
      "5c6c": 1646,
      "7hAd": 1647,
      "Td2d": 1648,
      "Kc5c": 1649,
      "3h3d": 1650,
      "4h6h": 1651,
      "9cJs": 1652,
      "QsJc": 1653,
      "4s8s": 1654,
      "8c5c": 1655,
      "8dTh": 1656,
      "Tc8s": 1657,
      "AcJh": 1658,
      "AsTh": 1659,
      "2c8h": 1660,
      "8c3c": 1661,
      "8dQc": 1662,
      "Tc6d": 1663,
      "Ac2s": 1664,
      "2c9h": 1665,
      "2cKh": 1666,
      "2dTd": 1667,
      "4sJc": 1668,
      "4sQc": 1669,
      "8hJc": 1670,
      "810": 1671,
      "2cKd": 1672,
      "3c4c": 1673,
      "4dJh": 1674,
      "4s5h": 1675,
      "6sJs": 1676,
      "7dQh": 1677,
      "7sJh": 1678,
      "9cQd": 1679,
      "Ah8s": 1680,
      "6c5c": 1681,
      "6s9s": 1682,
      "7cTs": 1683,
      "7hQd": 1684,
      "8dJs": 1685,
      "2d5s": 1686,
      "2hJh": 1687,
      "3dJc": 1688,
      "7cKc": 1689,
      "7dJd": 1690,
      "8cTd": 1691,
      "9cTh": 1692,
      "9d3h": 1693,
      "Qs8s": 1694,
      "4hKs": 1695,
      "6d5d": 1696,
      "8cJc": 1697,
      "Qc5h": 1698,
      "AcTs": 1699,
      "2c6h": 1700,
      "3cQd": 1701,
      "6sKc": 1702,
      "8d9s": 1703,
      "Jd3d": 1704,
      "Qc5s": 1705,
      "QsKh": 1706,
      "Ks9h": 1707,
      "2s5h": 1708,
      "6s4d": 1709,
      "9s6h": 1710,
      "Td5h": 1711,
      "Ad7h": 1712,
      "2hQd": 1713,
      "4hJh": 1714,
      "6dAh": 1715,
      "6sTh": 1716,
      "6sJh": 1717,
      "9cKd": 1718,
      "9s4c": 1719,
      "2s5d": 1720,
      "6c9h": 1721,
      "7dTc": 1722,
      "9c6h": 1723,
      "Ad3c": 1724,
      "2c3d": 1725,
      "3h5h": 1726,
      "3hAs": 1727,
      "5cQd": 1728,
      "6s7h": 1729,
      "7c2d": 1730,
      "7c9d": 1731,
      "7cTd": 1732,
      "7dKd": 1733,
      "7sJd": 1734,
      "8cJd": 1735,
      "Qc9h": 1736,
      "Qh2h": 1737,
      "7d3s": 1738,
      "8h3s": 1739,
      "Jc4c": 1740,
      "QsAh": 1741,
      "Ac2h": 1742,
      "8hTh": 1743,
      "9cKh": 1744,
      "Ts8c": 1745,
      "QsTd": 1746,
      "3d5d": 1747,
      "6s2s": 1748,
      "7d5h": 1749,
      "7dJh": 1750,
      "9dTh": 1751,
      "Qs9h": 1752,
      "4dKs": 1753,
      "5cJh": 1754,
      "7c9h": 1755,
      "Kc2s": 1756,
      "4dQc": 1757,
      "5hJh": 1758,
      "6cJd": 1759,
      "7c6d": 1760,
      "9c8h": 1761,
      "9d2s": 1762,
      "Ac7h": 1763,
      "As6h": 1764,
      "AsTc": 1765,
      "9cJd": 1766,
      "9cAh": 1767,
      "ThJh": 1768,
      "5s4c": 1769,
      "7s4c": 1770,
      "Qh2s": 1771,
      "Qs4c": 1772,
      "Kc5h": 1773,
      "Ks8d": 1774,
      "Ad2h": 1775,
      "2dAh": 1776,
      "4sJh": 1777,
      "6cJh": 1778,
      "7hTs": 1779,
      "Qh9s": 1780,
      "Ac4h": 1781,
      "3cJh": 1782,
      "8s4s": 1783,
      "9d4h": 1784,
      "Qc6h": 1785,
      "Kd5h": 1786,
      "3d2h": 1787,
      "7d2h": 1788,
      "8h6h": 1789,
      "Tc2c": 1790,
      "Td5c": 1791,
      "Kh5d": 1792,
      "8h7s": 1793,
      "8sKs": 1794,
      "Kh3c": 1795,
      "4d7h": 1796,
      "6d2d": 1797,
      "6s3s": 1798,
      "9s3s": 1799,
      "Tc5d": 1800,
      "TsAh": 1801,
      "2sQh": 1802,
      "5sJs": 1803,
      "6cKc": 1804,
      "7cKs": 1805,
      "7sAc": 1806,
      "9h2h": 1807,
      "9hJh": 1808,
      "2c2h": 1809,
      "8sQc": 1810,
      "9c6s": 1811,
      "9cKs": 1812,
      "9d4s": 1813,
      "9s6d": 1814,
      "TdKc": 1815,
      "6h8c": 1816,
      "Ks4s": 1817,
      "4d7s": 1818,
      "7c3h": 1819,
      "7hJd": 1820,
      "8dQh": 1821,
      "9c5h": 1822,
      "As3d": 1823,
      "4d4s": 1824,
      "4dJs": 1825,
      "4h6s": 1826,
      "5dJc": 1827,
      "8h2h": 1828,
      "Kd3h": 1829,
      "Ac7s": 1830,
      "As5h": 1831,
      "190": 1832,
      "780": 1833,
      "4dKc": 1834,
      "9c8s": 1835,
      "Jc7s": 1836,
      "QdTh": 1837,
      "Qs2s": 1838,
      "QsTc": 1839,
      "Kh2h": 1840,
      "AsTd": 1841,
      "4h7h": 1842,
      "5s3d": 1843,
      "KdAh": 1844,
      "Ks5h": 1845,
      "As7c": 1846,
      "4d2c": 1847,
      "5c3h": 1848,
      "6cJs": 1849,
      "6cQc": 1850,
      "8cAh": 1851,
      "8hJs": 1852,
      "As9s": 1853,
      "3sAh": 1854,
      "4d2d": 1855,
      "4d5d": 1856,
      "6h8d": 1857,
      "7d9h": 1858,
      "8hTc": 1859,
      "Qd2d": 1860,
      "Qd9s": 1861,
      "3c2d": 1862,
      "3d3h": 1863,
      "5cJd": 1864,
      "Qd4c": 1865,
      "Ac9s": 1866,
      "5s6d": 1867,
      "9h8s": 1868,
      "As3c": 1869,
      "2s4s": 1870,
      "3sAd": 1871,
      "4d3h": 1872,
      "5cQc": 1873,
      "5d8s": 1874,
      "6dTh": 1875,
      "6hJh": 1876,
      "7c4s": 1877,
      "9cAd": 1878,
      "9d7h": 1879,
      "Jd5h": 1880,
      "Kh6d": 1881,
      "8hKs": 1882,
      "9c6c": 1883,
      "Jd3c": 1884,
      "Ac8s": 1885,
      "6h4h": 1886,
      "7d3c": 1887,
      "Kc9s": 1888,
      "Kd3s": 1889,
      "Ac9d": 1890,
      "As9h": 1891,
      "4c8c": 1892,
      "6s5h": 1893,
      "8hQh": 1894,
      "9c3d": 1895,
      "Qd2c": 1896,
      "5c7s": 1897,
      "5c9s": 1898,
      "Td9s": 1899,
      "Qs6h": 1900,
      "Kd4h": 1901,
      "Ac4s": 1902,
      "Ah2s": 1903,
      "3dTc": 1904,
      "4c2d": 1905,
      "7c4h": 1906,
      "Th9s": 1907,
      "Ad4s": 1908,
      "2cKs": 1909,
      "6c5s": 1910,
      "7cJc": 1911,
      "8d2d": 1912,
      "Ts3s": 1913,
      "3c2h": 1914,
      "3dJs": 1915,
      "5d2d": 1916,
      "5d2h": 1917,
      "9h3h": 1918,
      "9hKc": 1919,
      "Qc7s": 1920,
      "2cJs": 1921,
      "5dTd": 1922,
      "6cTh": 1923,
      "Qs7h": 1924,
      "Ad8d": 1925,
      "5hJs": 1926,
      "7c6h": 1927,
      "7d8s": 1928,
      "9c3s": 1929,
      "Ks6d": 1930,
      "As7h": 1931,
      "3hQh": 1932,
      "9h4c": 1933,
      "Jh4h": 1934,
      "AsQh": 1935,
      "2s6d": 1936,
      "7d2d": 1937,
      "9cQh": 1938,
      "5h3c": 1939,
      "7d6h": 1940,
      "8s6d": 1941,
      "9h4s": 1942,
      "Qs2h": 1943,
      "5d7s": 1944,
      "6c4h": 1945,
      "Td4s": 1946,
      "Qs3h": 1947,
      "2dKc": 1948,
      "2sKc": 1949,
      "7c8s": 1950,
      "7hKd": 1951,
      "7sKh": 1952,
      "Th9d": 1953,
      "Jh2h": 1954,
      "Ad8s": 1955,
      "795": 1956,
      "2c5s": 1957,
      "3d8d": 1958,
      "3dQh": 1959,
      "7dKs": 1960,
      "Tc3h": 1961,
      "Qd3h": 1962,
      "Ah4h": 1963,
      "3c4h": 1964,
      "4cKd": 1965,
      "4cKs": 1966,
      "5c2h": 1967,
      "6dJc": 1968,
      "8c9h": 1969,
      "ThKs": 1970,
      "Ac6h": 1971,
      "3dTs": 1972,
      "5d2s": 1973,
      "5h3h": 1974,
      "6sQh": 1975,
      "Jc8h": 1976,
      "Jd8s": 1977,
      "Js8c": 1978,
      "Kh9s": 1979,
      "3sTs": 1980,
      "6d9d": 1981,
      "7dKc": 1982,
      "7sKc": 1983,
      "8d3d": 1984,
      "Td2h": 1985,
      "Th2d": 1986,
      "Kd7h": 1987,
      "Kh8s": 1988,
      "Jd6s": 1989,
      "Qc4d": 1990,
      "Qs8c": 1991,
      "Kd4s": 1992,
      "5c7h": 1993,
      "6c2c": 1994,
      "Js7h": 1995,
      "Kh4s": 1996,
      "4c6h": 1997,
      "9d6h": 1998,
      "Th5h": 1999,
      "Qc7h": 2000,
      "Qs3d": 2001,
      "Qs4d": 2002,
      "Ad6h": 2003,
      "As8s": 2004,
      "4cJc": 2005,
      "5d6c": 2006,
      "Td7c": 2007,
      "Ac5c": 2008,
      "3c9d": 2009,
      "3s2h": 2010,
      "3s8h": 2011,
      "7s4s": 2012,
      "7sQh": 2013,
      "Tc4s": 2014,
      "3sKd": 2015,
      "5c6h": 2016,
      "5dJh": 2017,
      "9h7c": 2018,
      "Jd5s": 2019,
      "Kc6h": 2020,
      "3h2s": 2021,
      "5d5c": 2022,
      "5h4h": 2023,
      "6dKh": 2024,
      "Td8d": 2025,
      "5sKd": 2026,
      "6s8d": 2027,
      "7sJc": 2028,
      "9h8c": 2029,
      "Tc7c": 2030,
      "Td3c": 2031,
      "Jd8h": 2032,
      "2s9c": 2033,
      "3dKh": 2034,
      "7dQs": 2035,
      "9sKc": 2036,
      "Js7c": 2037,
      "Qc8d": 2038,
      "2c4s": 2039,
      "9h6h": 2040,
      "Js6s": 2041,
      "As6c": 2042,
      "2c4h": 2043,
      "5s6c": 2044,
      "6d4h": 2045,
      "7s6s": 2046,
      "8c7h": 2047,
      "8sQh": 2048,
      "Tc3c": 2049,
      "Td7h": 2050,
      "Qh8s": 2051,
      "Ks4d": 2052,
      "9c5c": 2053,
      "Jh5d": 2054,
      "Qd4d": 2055,
      "Kd5c": 2056,
      "Ad4h": 2057,
      "2c3c": 2058,
      "2cTs": 2059,
      "7s9s": 2060,
      "2c6c": 2061,
      "2c9d": 2062,
      "2sTs": 2063,
      "3hAc": 2064,
      "3sJc": 2065,
      "5sTs": 2066,
      "7sTh": 2067,
      "8h9d": 2068,
      "Kh2d": 2069,
      "Ad4d": 2070,
      "5s2h": 2071,
      "6d3c": 2072,
      "7d8c": 2073,
      "Jh5c": 2074,
      "Qc9d": 2075,
      "Ks4h": 2076,
      "2c4d": 2077,
      "3h6s": 2078,
      "5s4h": 2079,
      "8s2d": 2080,
      "8s6h": 2081,
      "9c4d": 2082,
      "Th8d": 2083,
      "Jd2h": 2084,
      "Qs5d": 2085,
      "Kc2h": 2086,
      "3sTc": 2087,
      "5s9s": 2088,
      "7sAh": 2089,
      "8c4s": 2090,
      "Jd4c": 2091,
      "Jd9s": 2092,
      "Qd3d": 2093,
      "Qd7c": 2094,
      "Kd6c": 2095,
      "Ks4c": 2096,
      "2d5d": 2097,
      "Th4d": 2098,
      "Qc8s": 2099,
      "Qd7d": 2100,
      "Qh5h": 2101,
      "Ad6c": 2102,
      "5hQh": 2103,
      "5s9h": 2104,
      "6d3d": 2105,
      "6dTc": 2106,
      "6h4d": 2107,
      "Js8d": 2108,
      "Qs8d": 2109,
      "Ah8d": 2110,
      "3c5d": 2111,
      "5h7c": 2112,
      "7d4h": 2113,
      "Jh4c": 2114,
      "Qc4c": 2115,
      "Kh4c": 2116,
      "7c5c": 2117,
      "9c4h": 2118,
      "9d6s": 2119,
      "Td3h": 2120,
      "Jc3d": 2121,
      "Qc4s": 2122,
      "6d8h": 2123,
      "9c8c": 2124,
      "Qc2s": 2125,
      "Qh6c": 2126,
      "3s4c": 2127,
      "7h2s": 2128,
      "7hKc": 2129,
      "9c2d": 2130,
      "Td8s": 2131,
      "Js2s": 2132,
      "Qd2h": 2133,
      "Qd4s": 2134,
      "Kd2s": 2135,
      "Ac4d": 2136,
      "Ah7d": 2137,
      "2c8c": 2138,
      "7s6h": 2139,
      "8h3c": 2140,
      "9dTc": 2141,
      "Js2d": 2142,
      "Ad3s": 2143,
      "6d2h": 2144,
      "8h4h": 2145,
      "Jc2s": 2146,
      "Jc5d": 2147,
      "Kc5d": 2148,
      "Ac3d": 2149,
      "4sTc": 2150,
      "7s5h": 2151,
      "Qh8d": 2152,
      "Kd8s": 2153,
      "3c7c": 2154,
      "6dKs": 2155,
      "9d4d": 2156,
      "Jh9c": 2157,
      "Ad2c": 2158,
      "3s7d": 2159,
      "5dTs": 2160,
      "8c7d": 2161,
      "8cQs": 2162,
      "8h7d": 2163,
      "Js5h": 2164,
      "Qs7d": 2165,
      "6d4s": 2166,
      "6s7c": 2167,
      "8h9c": 2168,
      "8hAd": 2169,
      "Qd6h": 2170,
      "4c8d": 2171,
      "9s2h": 2172,
      "9s5s": 2173,
      "5cAs": 2174,
      "7h6s": 2175,
      "Qd5h": 2176,
      "Kc4s": 2177,
      "Ac5h": 2178,
      "3c6s": 2179,
      "3hJd": 2180,
      "3s2d": 2181,
      "7s5s": 2182,
      "Kh9d": 2183,
      "2dTs": 2184,
      "3cQh": 2185,
      "3cAh": 2186,
      "Tc8d": 2187,
      "Jh4s": 2188,
      "Ks8s": 2189,
      "5c7c": 2190,
      "6c2d": 2191,
      "6dAd": 2192,
      "Th2c": 2193,
      "Qd7h": 2194,
      "Kc4h": 2195,
      "3c4s": 2196,
      "3c7s": 2197,
      "3d9h": 2198,
      "6dJd": 2199,
      "Qd8d": 2200,
      "Kh5c": 2201,
      "2s3d": 2202,
      "8c9s": 2203,
      "8h5h": 2204,
      "Kd7c": 2205,
      "770": 2206,
      "3cAd": 2207,
      "3hTh": 2208,
      "7h4s": 2209,
      "9cQc": 2210,
      "9s3d": 2211,
      "Ts4c": 2212,
      "Ts7c": 2213,
      "185": 2214,
      "740": 2215,
      "2hAh": 2216,
      "3hQs": 2217,
      "7s5d": 2218,
      "Th7c": 2219,
      "Qh6s": 2220,
      "3hJs": 2221,
      "Tc5h": 2222,
      "Kh8d": 2223,
      "3d4h": 2224,
      "3h6c": 2225,
      "3h6h": 2226,
      "5sAc": 2227,
      "8h5c": 2228,
      "9s4d": 2229,
      "Td5s": 2230,
      "Kc2c": 2231,
      "Kh4d": 2232,
      "8c5h": 2233,
      "8hJd": 2234,
      "Qd9h": 2235,
      "Kh9c": 2236,
      "As2c": 2237,
      "2sJc": 2238,
      "6h9d": 2239,
      "7h2h": 2240,
      "6c9c": 2241,
      "6d4c": 2242,
      "6d9c": 2243,
      "8h7c": 2244,
      "TdQc": 2245,
      "Qd6s": 2246,
      "Ah3s": 2247,
      "5d8d": 2248,
      "5s2c": 2249,
      "6c8s": 2250,
      "6h7c": 2251,
      "6hJd": 2252,
      "6hKd": 2253,
      "9h2s": 2254,
      "Qd3s": 2255,
      "KsQc": 2256,
      "2dQs": 2257,
      "2h4h": 2258,
      "2h8s": 2259,
      "5cTh": 2260,
      "6dJh": 2261,
      "6s8c": 2262,
      "7hQc": 2263,
      "Tc4h": 2264,
      "Ts6c": 2265,
      "Js4d": 2266,
      "Ah8c": 2267,
      "Ts3d": 2268,
      "Jc5h": 2269,
      "Jh7c": 2270,
      "6s4s": 2271,
      "Ts9d": 2272,
      "Jc4h": 2273,
      "Qs4s": 2274,
      "Ks7c": 2275,
      "2d8d": 2276,
      "2s3c": 2277,
      "9h3s": 2278,
      "2d2c": 2279,
      "4d3s": 2280,
      "5dQs": 2281,
      "8s2h": 2282,
      "Ts5c": 2283,
      "Ts8h": 2284,
      "7h6c": 2285,
      "Qc3s": 2286,
      "Kc7d": 2287,
      "Kd6s": 2288,
      "2d6s": 2289,
      "4c6c": 2290,
      "4s3d": 2291,
      "8s7c": 2292,
      "Th3s": 2293,
      "Js3c": 2294,
      "Kh7c": 2295,
      "2dKd": 2296,
      "4c5d": 2297,
      "7s5c": 2298,
      "9h2c": 2299,
      "Tc3s": 2300,
      "Js7d": 2301,
      "2dKs": 2302,
      "2sAh": 2303,
      "3h2h": 2304,
      "4sJd": 2305,
      "7h9s": 2306,
      "7hQh": 2307,
      "7s8c": 2308,
      "9h5c": 2309,
      "Th3d": 2310,
      "Jh2s": 2311,
      "Js9c": 2312,
      "Qd8c": 2313,
      "Qd8h": 2314,
      "Kh3d": 2315,
      "760": 2316,
      "2dQh": 2317,
      "4c5c": 2318,
      "4d7c": 2319,
      "5s7c": 2320,
      "6hQs": 2321,
      "As8h": 2322,
      "3h8h": 2323,
      "6d8s": 2324,
      "Ts9s": 2325,
      "5d9c": 2326,
      "5dJd": 2327,
      "5dKc": 2328,
      "5sTc": 2329,
      "6h5c": 2330,
      "8s9s": 2331,
      "2s9s": 2332,
      "4h5c": 2333,
      "4hAc": 2334,
      "5sJd": 2335,
      "2h3s": 2336,
      "3cKd": 2337,
      "3dTh": 2338,
      "5hTc": 2339,
      "5hQs": 2340,
      "9d3s": 2341,
      "3cTd": 2342,
      "4s7c": 2343,
      "6s7d": 2344,
      "7hAs": 2345,
      "Js2h": 2346,
      "5sJc": 2347,
      "6dAc": 2348,
      "8sKc": 2349,
      "Js4c": 2350,
      "3c9h": 2351,
      "4d9d": 2352,
      "5s8h": 2353,
      "6h7d": 2354,
      "7sQc": 2355,
      "2cJh": 2356,
      "2cQh": 2357,
      "4d3d": 2358,
      "4dTd": 2359,
      "4h8c": 2360,
      "9d3d": 2361,
      "9s7d": 2362,
      "Jc3s": 2363,
      "Jh7s": 2364,
      "2s5c": 2365,
      "4hQs": 2366,
      "5h2h": 2367,
      "6s3h": 2368,
      "Qd3c": 2369,
      "2s8s": 2370,
      "2sQc": 2371,
      "8d4c": 2372,
      "Qs5h": 2373,
      "Qs6c": 2374,
      "6s2d": 2375,
      "Js6c": 2376,
      "Qd9d": 2377,
      "4hKc": 2378,
      "5sKc": 2379,
      "6cQh": 2380,
      "6h8s": 2381,
      "7sTd": 2382,
      "2s3s": 2383,
      "2s8c": 2384,
      "4c7d": 2385,
      "4dJc": 2386,
      "6dTs": 2387,
      "3cTh": 2388,
      "4h3d": 2389,
      "5s2d": 2390,
      "6dJs": 2391,
      "6h9h": 2392,
      "6hTs": 2393,
      "Qc2h": 2394,
      "3c8s": 2395,
      "6c7h": 2396,
      "As2d": 2397,
      "4dKh": 2398,
      "5s7d": 2399,
      "Ts6d": 2400,
      "3h5c": 2401,
      "6c5d": 2402,
      "6cKd": 2403,
      "6s5c": 2404,
      "7s8s": 2405,
      "Ad9s": 2406,
      "Ah2c": 2407,
      "4d8s": 2408,
      "7c8d": 2409,
      "9c4c": 2410,
      "Ks6h": 2411,
      "As8d": 2412,
      "4s5d": 2413,
      "6s2c": 2414,
      "6s2h": 2415,
      "JhTd": 2416,
      "Kd4c": 2417,
      "2s9d": 2418,
      "5h7s": 2419,
      "5hTd": 2420,
      "5s7h": 2421,
      "Jd9h": 2422,
      "Js8h": 2423,
      "Ac7d": 2424,
      "3h8c": 2425,
      "4dTh": 2426,
      "4sQh": 2427,
      "6c7d": 2428,
      "8d7h": 2429,
      "9s5c": 2430,
      "Jd7h": 2431,
      "3hJh": 2432,
      "5d3s": 2433,
      "9c6d": 2434,
      "9c8d": 2435,
      "Tc7d": 2436,
      "Qd7s": 2437,
      "2hJc": 2438,
      "3dJh": 2439,
      "4d6s": 2440,
      "4h5d": 2441,
      "5sTd": 2442,
      "5sQc": 2443,
      "9cTd": 2444,
      "2cTh": 2445,
      "2s4c": 2446,
      "5s3c": 2447,
      "6c3d": 2448,
      "6h3s": 2449,
      "6hJc": 2450,
      "6hKs": 2451,
      "Js5c": 2452,
      "2sTd": 2453,
      "4sTd": 2454,
      "6c8h": 2455,
      "6c9d": 2456,
      "Th6d": 2457,
      "2h5c": 2458,
      "4hKd": 2459,
      "6c2h": 2460,
      "JsTd": 2461,
      "3s9d": 2462,
      "3s9s": 2463,
      "4s3h": 2464,
      "8c4c": 2465,
      "8d7c": 2466,
      "8h2d": 2467,
      "9c7h": 2468,
      "2hTc": 2469,
      "4dAh": 2470,
      "Qh4c": 2471,
      "Qs7c": 2472,
      "745": 2473,
      "790": 2474,
      "9850": 2475,
      "5sJh": 2476,
      "6s3d": 2477,
      "6s9h": 2478,
      "7sTc": 2479,
      "8c3d": 2480,
      "Jc3h": 2481,
      "Kh4h": 2482,
      "7h5c": 2483,
      "2dJs": 2484,
      "5hTh": 2485,
      "5hJd": 2486,
      "8c6d": 2487,
      "9c2c": 2488,
      "Qs4h": 2489,
      "Ks2c": 2490,
      "2h4s": 2491,
      "2sKd": 2492,
      "3hAd": 2493,
      "4d8h": 2494,
      "6s4h": 2495,
      "7d9d": 2496,
      "Js2c": 2497,
      "2d9s": 2498,
      "2sQd": 2499,
      "5dQh": 2500,
      "6c9s": 2501,
      "8dTc": 2502,
      "8dKh": 2503,
      "Js6h": 2504,
      "Qs2c": 2505,
      "2hKd": 2506,
      "5h9s": 2507,
      "9h2d": 2508,
      "2h9h": 2509,
      "2hQc": 2510,
      "5s3h": 2511,
      "7s4h": 2512,
      "9c4s": 2513,
      "Ah4s": 2514,
      "3dKs": 2515,
      "5h9d": 2516,
      "6sTc": 2517,
      "7s9d": 2518,
      "Kh2c": 2519,
      "2s7d": 2520,
      "5sTh": 2521,
      "Js3d": 2522,
      "2dJc": 2523,
      "2h7c": 2524,
      "3sTd": 2525,
      "5d3d": 2526,
      "6cTd": 2527,
      "7s3h": 2528,
      "8c4h": 2529,
      "8cKs": 2530,
      "2h7h": 2531,
      "4c2c": 2532,
      "5d9s": 2533,
      "6d7h": 2534,
      "2dTh": 2535,
      "3hKc": 2536,
      "4d5s": 2537,
      "5h9c": 2538,
      "8d2c": 2539,
      "Jd2c": 2540,
      "Ah3c": 2541,
      "2s5s": 2542,
      "Jd3s": 2543,
      "Qd4h": 2544,
      "2dJh": 2545,
      "2hAc": 2546,
      "5c7d": 2547,
      "6h4c": 2548,
      "6hTc": 2549,
      "8d9h": 2550,
      "2dQc": 2551,
      "3cQs": 2552,
      "6d5c": 2553,
      "7s3d": 2554,
      "Jc7d": 2555,
      "2s6s": 2556,
      "4cQh": 2557,
      "4s8h": 2558,
      "6d2c": 2559,
      "7c3d": 2560,
      "7s4d": 2561,
      "8s4d": 2562,
      "Jd5c": 2563,
      "Ks8c": 2564,
      "4s7d": 2565,
      "5h7d": 2566,
      "6cAd": 2567,
      "6d8c": 2568,
      "3cKh": 2569,
      "4hTc": 2570,
      "5hTs": 2571,
      "6c2s": 2572,
      "6c3h": 2573,
      "9c5s": 2574,
      "Jh3d": 2575,
      "Qd5c": 2576,
      "3sQh": 2577,
      "5d6h": 2578,
      "5h5s": 2579,
      "KhTs": 2580,
      "9h3d": 2581,
      "Jc2c": 2582,
      "Jd7c": 2583,
      "3cTc": 2584,
      "7s6d": 2585,
      "Qs5c": 2586,
      "7cJd": 2587,
      "8h9s": 2588,
      "Kc3s": 2589,
      "2h7d": 2590,
      "3d5c": 2591,
      "6c8d": 2592,
      "8h3h": 2593,
      "Ts2c": 2594,
      "4hQc": 2595,
      "6sJd": 2596,
      "7c2s": 2597,
      "7cTh": 2598,
      "8c4d": 2599,
      "8h4c": 2600,
      "2h4c": 2601,
      "3cKs": 2602,
      "3sQc": 2603,
      "5d3h": 2604,
      "5dTh": 2605,
      "Kd2c": 2606,
      "3c7d": 2607,
      "6h3d": 2608,
      "Tc3d": 2609,
      "Tc9d": 2610,
      "4d2s": 2611,
      "5h2d": 2612,
      "2hKc": 2613,
      "3sTh": 2614,
      "4d9h": 2615,
      "2d4d": 2616,
      "3s4h": 2617,
      "4c7h": 2618,
      "5c9d": 2619,
      "5d9h": 2620,
      "6sTd": 2621,
      "8c5s": 2622,
      "9d5c": 2623,
      "Ts5s": 2624,
      "Js4h": 2625,
      "Kc7h": 2626,
      "3s6d": 2627,
      "Qh5s": 2628,
      "2h9s": 2629,
      "3h8d": 2630,
      "3hJc": 2631,
      "Th5s": 2632,
      "3s6s": 2633,
      "3s8d": 2634,
      "5h4c": 2635,
      "6sJc": 2636,
      "Ts6h": 2637,
      "Qh7h": 2638,
      "820": 2639,
      "3hQd": 2640,
      "4sTh": 2641,
      "5d3c": 2642,
      "5h4d": 2643,
      "8s2c": 2644,
      "2h4d": 2645,
      "2h6c": 2646,
      "2d6d": 2647,
      "2sAd": 2648,
      "5d7h": 2649,
      "5hKc": 2650,
      "Qh3d": 2651,
      "As4d": 2652,
      "2d8s": 2653,
      "2sTh": 2654,
      "3c8h": 2655,
      "3s7h": 2656,
      "5hQc": 2657,
      "Tc5s": 2658,
      "3c6h": 2659,
      "3cJs": 2660,
      "4cQd": 2661,
      "4hAd": 2662,
      "4sKd": 2663,
      "Tc2s": 2664,
      "Tc6h": 2665,
      "2s7c": 2666,
      "4hJs": 2667,
      "3h9d": 2668,
      "4s6d": 2669,
      "5cKc": 2670,
      "5h6s": 2671,
      "2sJd": 2672,
      "5hJc": 2673,
      "Qd6c": 2674,
      "Qh9d": 2675,
      "Ks7d": 2676,
      "Ac6d": 2677,
      "2s4d": 2678,
      "3c6c": 2679,
      "3h7h": 2680,
      "3s7c": 2681,
      "5h8d": 2682,
      "6hQc": 2683,
      "7s2d": 2684,
      "2hTd": 2685,
      "5cKd": 2686,
      "9h5d": 2687,
      "Qs6d": 2688,
      "2cTd": 2689,
      "3cTs": 2690,
      "3d9c": 2691,
      "3sKc": 2692,
      "4s7h": 2693,
      "8d6c": 2694,
      "8s6c": 2695,
      "9h4d": 2696,
      "2h6d": 2697,
      "3s7s": 2698,
      "5c6d": 2699,
      "5d7c": 2700,
      "Jc4d": 2701,
      "4c8h": 2702,
      "4s2d": 2703,
      "Qh7c": 2704,
      "2sTc": 2705,
      "3h4c": 2706,
      "4s8c": 2707,
      "6s9c": 2708,
      "Tc2d": 2709,
      "Qc6c": 2710,
      "Qh7d": 2711,
      "3h7s": 2712,
      "4s8d": 2713,
      "5d2c": 2714,
      "Td6h": 2715,
      "3h7c": 2716,
      "4h9c": 2717,
      "5s8c": 2718,
      "8h6d": 2719,
      "Td6c": 2720,
      "Qd2s": 2721,
      "3s4d": 2722,
      "3s8s": 2723,
      "4s5c": 2724,
      "9s3c": 2725,
      "4sJs": 2726,
      "Qc6s": 2727,
      "735": 2728,
      "2c8d": 2729,
      "2c8s": 2730,
      "3d9d": 2731,
      "4c6d": 2732,
      "5c9h": 2733,
      "6hKc": 2734,
      "Th6c": 2735,
      "Th7s": 2736,
      "Qc6d": 2737,
      "2hAs": 2738,
      "4s9h": 2739,
      "Jh2d": 2740,
      "3h2c": 2741,
      "765": 2742,
      "910": 2743,
      "4c9s": 2744,
      "Ts2d": 2745,
      "Jc2h": 2746,
      "785": 2747,
      "3c9s": 2748,
      "4cJd": 2749,
      "5s9c": 2750,
      "8h2c": 2751,
      "Kh2s": 2752,
      "3c6d": 2753,
      "3d9s": 2754,
      "3s9c": 2755,
      "3sJh": 2756,
      "4c8s": 2757,
      "5cTd": 2758,
      "5s4d": 2759,
      "Js5d": 2760,
      "3dQs": 2761,
      "5c8d": 2762,
      "Ts2h": 2763,
      "2d7d": 2764,
      "4c3h": 2765,
      "4h9d": 2766,
      "8c2h": 2767,
      "Ah4d": 2768,
      "2d6c": 2769,
      "2hTs": 2770,
      "Jc4s": 2771,
      "Js3h": 2772,
      "2d7s": 2773,
      "2s6c": 2774,
      "4hTd": 2775,
      "7c3c": 2776,
      "2d3c": 2777,
      "2s8d": 2778,
      "7dTh": 2779,
      "2d4h": 2780,
      "3d4c": 2781,
      "3d6s": 2782,
      "5s8d": 2783,
      "9h6d": 2784,
      "Jd3h": 2785,
      "2h8c": 2786,
      "4c6s": 2787,
      "9d3c": 2788,
      "Td6s": 2789,
      "Jc6s": 2790,
      "3d2c": 2791,
      "6c4d": 2792,
      "6d9s": 2793,
      "9d2c": 2794,
      "Ts4h": 2795,
      "Jc7h": 2796,
      "7s2s": 2797,
      "Td4h": 2798,
      "Ts3h": 2799,
      "180": 2800,
      "3d5h": 2801,
      "3s2s": 2802,
      "5c4d": 2803,
      "6h3c": 2804,
      "7h2c": 2805,
      "9d5s": 2806,
      "Th3c": 2807,
      "Jd4h": 2808,
      "3s8c": 2809,
      "4c2s": 2810,
      "8h4s": 2811,
      "Tc4d": 2812,
      "Ts3c": 2813,
      "Jc2d": 2814,
      "2h5h": 2815,
      "9h6s": 2816,
      "Jd4s": 2817,
      "4c3c": 2818,
      "5c6s": 2819,
      "5d8c": 2820,
      "7s6c": 2821,
      "840": 2822,
      "3d8h": 2823,
      "7d4s": 2824,
      "Jh3c": 2825,
      "3d7c": 2826,
      "3dQd": 2827,
      "5cQh": 2828,
      "8c2s": 2829,
      "Tc7s": 2830,
      "2h3c": 2831,
      "4c5s": 2832,
      "Ts5h": 2833,
      "2d5h": 2834,
      "3s2c": 2835,
      "4cTd": 2836,
      "6cKs": 2837,
      "8c3h": 2838,
      "8s5h": 2839,
      "Jc6d": 2840,
      "Jh2c": 2841,
      "2d6h": 2842,
      "2h3h": 2843,
      "2h9c": 2844,
      "3d7h": 2845,
      "4h6d": 2846,
      "7s3c": 2847,
      "4cTh": 2848,
      "2d4s": 2849,
      "3h9s": 2850,
      "4d9s": 2851,
      "4h7d": 2852,
      "8d2s": 2853,
      "7d2c": 2854,
      "8c3s": 2855,
      "Ts5d": 2856,
      "Jh5s": 2857,
      "Js6d": 2858,
      "3d8s": 2859,
      "7d5s": 2860,
      "7h3s": 2861,
      "3d2s": 2862,
      "3h5d": 2863,
      "4s9c": 2864,
      "6sKd": 2865,
      "7s2c": 2866,
      "8c6s": 2867,
      "2d4c": 2868,
      "8d3c": 2869,
      "2d5c": 2870,
      "2d8h": 2871,
      "3dTd": 2872,
      "3dQc": 2873,
      "6h2s": 2874,
      "Jh6c": 2875,
      "2dTc": 2876,
      "2h6s": 2877,
      "3d7s": 2878,
      "4hJd": 2879,
      "Qd5s": 2880,
      "7c5d": 2881,
      "7d6s": 2882,
      "8c2c": 2883,
      "8h5d": 2884,
      "9s2c": 2885,
      "3h4d": 2886,
      "4cQc": 2887,
      "3hTd": 2888,
      "8d4s": 2889,
      "3d6h": 2890,
      "3s5h": 2891,
      "4h8s": 2892,
      "5s9d": 2893,
      "7c2h": 2894,
      "Th5c": 2895,
      "2d7h": 2896,
      "4c9h": 2897,
      "775": 2898,
      "8d5c": 2899,
      "3d8c": 2900,
      "2s2c": 2901,
      "2s9h": 2902,
      "3h5s": 2903,
      "4sKc": 2904,
      "870": 2905,
      "3h8s": 2906,
      "3s6h": 2907,
      "4hTs": 2908,
      "6s5d": 2909,
      "7c2c": 2910,
      "8h5s": 2911,
      "2d9h": 2912,
      "4s9d": 2913,
      "6hJs": 2914,
      "9d4c": 2915,
      "Tc2h": 2916,
      "3c5s": 2917,
      "3s9h": 2918,
      "6h5d": 2919,
      "7d5c": 2920,
      "830": 2921,
      "3hQc": 2922,
      "4h2d": 2923,
      "4h2s": 2924,
      "8d2h": 2925,
      "8h4d": 2926,
      "4c3s": 2927,
      "7d2s": 2928,
      "Qs3c": 2929,
      "2h8d": 2930,
      "6h2c": 2931,
      "8h2s": 2932,
      "8h3d": 2933,
      "2hJd": 2934,
      "9c5d": 2935,
      "Ts4d": 2936,
      "5h3s": 2937,
      "7h2d": 2938,
      "Td2s": 2939,
      "815": 2940,
      "6s3c": 2941,
      "5h8s": 2942,
      "Jh3s": 2943,
      "3h4s": 2944,
      "5d4s": 2945,
      "5c2s": 2946,
      "Th2s": 2947,
      "3hTc": 2948,
      "4h7c": 2949,
      "8s4h": 2950,
      "4c2h": 2951,
      "4c9d": 2952,
      "6h2d": 2953,
      "Th4s": 2954,
      "Jc9s": 2955,
      "9d2h": 2956,
      "2d8c": 2957,
      "3c7h": 2958,
      "5d4h": 2959,
      "5h2c": 2960,
      "9c3h": 2961,
      "4c3d": 2962,
      "8d3s": 2963,
      "9c2s": 2964,
      "2d7c": 2965,
      "3c4d": 2966,
      "6d7c": 2967,
      "2c3s": 2968,
      "2cJd": 2969,
      "4cJh": 2970,
      "4h8d": 2971,
      "7d3h": 2972,
      "5dTc": 2973,
      "3c2s": 2974,
      "8s3h": 2975,
      "3s6c": 2976,
      "8c2d": 2977,
      "4c7s": 2978,
      "8s3c": 2979,
      "2c6s": 2980,
      "2c7h": 2981,
      "2hTh": 2982,
      "5c2d": 2983,
      "5h3d": 2984,
      "2h7s": 2985,
      "3h7d": 2986,
      "895": 2987,
      "2c6d": 2988,
      "9h3c": 2989,
      "9s2d": 2990,
      "2h8h": 2991,
      "4h3s": 2992,
      "2h9d": 2993,
      "880": 2994,
      "6d3s": 2995,
      "8s4c": 2996,
      "7s2h": 2997,
      "2s7h": 2998,
      "3d4s": 2999,
      "3h9c": 3000,
      "2s6h": 3001,
      "7h4d": 3002,
      "7h5s": 3003,
      "3d5s": 3004,
      "2s4h": 3005,
      "3s5c": 3006,
      "2c9s": 3007,
      "2s8h": 3008,
      "5cTs": 3009,
      "4d2h": 3010,
      "4d9c": 3011,
      "3c8d": 3012,
      "3h6d": 3013,
      "4h6c": 3014,
      "8s3d": 3015,
      "2h3d": 3016,
      "5d6s": 3017,
      "825": 3018,
      "4h2c": 3019,
      "2d3s": 3020,
      "9s3h": 3021,
      "890": 3022,
      "3h2d": 3023,
      "5h2s": 3024,
      "7c3s": 3025,
      "2c7s": 3026,
      "9950": 3027,
      "920": 3028,
      "960": 3029,
      "835": 3030,
      "860": 3031,
      "1030": 3032,
      "1090": 3033,
      "930": 3034,
      "990": 3035,
      "8d3h": 3036,
      "970": 3037,
      "1180": 3038,
      "940": 3039,
      "1230": 3040,
      "1140": 3041,
      "1190": 3042,
      "1010": 3043,
      "1300": 3044,
      "1020": 3045,
      "1260": 3046,
      "1160": 3047,
      "170": 3048,
      "1150": 3049,
      "1110": 3050,
      "1050": 3051,
      "1170": 3052,
      "1100": 3053,
      "1215": 3054,
      "1210": 3055,
      "845": 3056,
      "1375": 3057,
      "1060": 3058,
      "1370": 3059,
      "1040": 3060,
      "885": 3061,
      "1295": 3062,
      "1310": 3063,
      "1145": 3064,
      "1045": 3065,
      "1070": 3066,
      "1285": 3067,
      "110": 3068,
      "1155": 3069,
      "1130": 3070,
      "1240": 3071,
      "1455": 3072,
      "975": 3073,
      "980": 3074,
      "1075": 3075,
      "1200": 3076,
      "1165": 3077,
      "1320": 3078,
      "1125": 3079,
      "1405": 3080,
      "1065": 3081,
      "1305": 3082,
      "1340": 3083,
      "1360": 3084,
      "1330": 3085,
      "1120": 3086,
      "1430": 3087,
      "1035": 3088,
      "1280": 3089,
      "865": 3090,
      "915": 3091,
      "1080": 3092,
      "1220": 3093,
      "1325": 3094,
      "1000": 3095,
      "175": 3096,
      "875": 3097,
      "1355": 3098,
      "925": 3099,
      "1380": 3100,
      "1350": 3101,
      "1135": 3102,
      "1445": 3103,
      "1500": 3104,
      "945": 3105,
      "1025": 3106,
      "1440": 3107,
      "1250": 3108,
      "1345": 3109,
      "1245": 3110,
      "1495": 3111,
      "1105": 3112,
      "1195": 3113,
      "1270": 3114,
      "1460": 3115,
      "1095": 3116,
      "1540": 3117,
      "1425": 3118,
      "955": 3119,
      "1225": 3120,
      "1205": 3121,
      "1290": 3122,
      "1515": 3123,
      "1185": 3124,
      "1420": 3125,
      "1390": 3126,
      "1235": 3127,
      "1335": 3128,
      "1115": 3129,
      "1395": 3130,
      "1015": 3131,
      "1465": 3132,
      "935": 3133,
      "1055": 3134,
      "1175": 3135,
      "1400": 3136,
      "965": 3137,
      "1265": 3138,
      "1365": 3139,
      "1275": 3140,
      "1435": 3141,
      "1490": 3142,
      "1510": 3143,
      "1470": 3144,
      "1385": 3145,
      "1560": 3146,
      "1590": 3147,
      "1085": 3148,
      "1525": 3149,
      "985": 3150,
      "1550": 3151,
      "1660": 3152,
      "1450": 3153,
      "1520": 3154,
      "1545": 3155,
      "1415": 3156,
      "1255": 3157,
      "1505": 3158,
      "1315": 3159,
      "1565": 3160,
      "1480": 3161,
      "1740": 3162,
      "1530": 3163,
      "1555": 3164,
      "1605": 3165,
      "1570": 3166,
      "1655": 3167,
      "1580": 3168,
      "1005": 3169,
      "995": 3170,
      "1410": 3171,
      "1575": 3172,
      "1535": 3173,
      "1615": 3174,
      "1710": 3175,
      "1485": 3176,
      "1680": 3177,
      "1585": 3178,
      "1760": 3179,
      "1795": 3180,
      "1720": 3181,
      "1810": 3182,
      "1650": 3183,
      "1695": 3184,
      "1595": 3185,
      "1625": 3186,
      "1630": 3187,
      "1665": 3188,
      "1785": 3189,
      "1700": 3190,
      "1750": 3191,
      "1685": 3192,
      "1620": 3193,
      "1475": 3194,
      "1640": 3195,
      "1780": 3196,
      "1725": 3197,
      "1645": 3198,
      "1765": 3199,
      "1610": 3200,
      "1730": 3201,
      "1670": 3202,
      "1600": 3203,
      "1820": 3204,
      "1775": 3205,
      "1675": 3206,
      "1790": 3207,
      "1895": 3208,
      "1830": 3209,
      "1840": 3210,
      "1705": 3211,
      "1690": 3212,
      "1745": 3213,
      "1825": 3214,
      "1845": 3215,
      "1805": 3216,
      "1905": 3217,
      "1815": 3218,
      "1635": 3219,
      "1880": 3220,
      "1910": 3221,
      "1985": 3222,
      "1900": 3223,
      "1870": 3224,
      "1735": 3225,
      "2010": 3226,
      "1715": 3227,
      "1850": 3228,
      "1865": 3229,
      "1965": 3230,
      "1835": 3231,
      "1995": 3232,
      "1770": 3233,
      "1860": 3234,
      "1890": 3235,
      "1755": 3236,
      "1885": 3237,
      "1960": 3238,
      "2005": 3239,
      "1920": 3240,
      "1855": 3241,
      "1875": 3242,
      "1915": 3243,
      "1955": 3244,
      "1800": 3245,
      "1970": 3246,
      "1940": 3247,
      "1980": 3248,
      "2095": 3249,
      "2035": 3250,
      "2025": 3251,
      "2125": 3252,
      "2030": 3253,
      "1925": 3254,
      "1945": 3255,
      "1935": 3256,
      "2040": 3257,
      "2020": 3258,
      "1930": 3259,
      "2135": 3260,
      "2000": 3261,
      "2085": 3262,
      "2195": 3263,
      "2100": 3264,
      "2015": 3265,
      "2240": 3266,
      "2140": 3267,
      "2060": 3268,
      "2065": 3269,
      "2075": 3270,
      "1990": 3271,
      "2175": 3272,
      "2070": 3273,
      "2115": 3274,
      "2120": 3275,
      "2090": 3276,
      "2190": 3277,
      "2145": 3278,
      "165": 3279,
      "1950": 3280,
      "2050": 3281,
      "2160": 3282,
      "2045": 3283,
      "2055": 3284,
      "2210": 3285,
      "2255": 3286,
      "2155": 3287,
      "2180": 3288,
      "1975": 3289,
      "2285": 3290,
      "2200": 3291,
      "2290": 3292,
      "2230": 3293,
      "2130": 3294,
      "2170": 3295,
      "2300": 3296,
      "2320": 3297,
      "2110": 3298,
      "2185": 3299,
      "2150": 3300,
      "2105": 3301,
      "2165": 3302,
      "2270": 3303,
      "2280": 3304,
      "2080": 3305,
      "2215": 3306,
      "2295": 3307,
      "2235": 3308,
      "2260": 3309,
      "2250": 3310,
      "2380": 3311,
      "2345": 3312,
      "2350": 3313,
      "2265": 3314,
      "160": 3315,
      "2390": 3316,
      "2355": 3317,
      "2275": 3318,
      "2205": 3319,
      "2220": 3320,
      "2415": 3321,
      "2450": 3322,
      "2335": 3323,
      "2395": 3324,
      "2420": 3325,
      "2470": 3326,
      "2305": 3327,
      "2370": 3328,
      "2310": 3329,
      "2475": 3330,
      "2330": 3331,
      "2460": 3332,
      "2225": 3333,
      "2365": 3334,
      "2465": 3335,
      "2315": 3336,
      "2360": 3337,
      "2385": 3338,
      "2480": 3339,
      "2340": 3340,
      "2430": 3341,
      "2400": 3342,
      "2550": 3343,
      "2245": 3344,
      "2570": 3345,
      "2405": 3346,
      "2455": 3347,
      "2435": 3348,
      "2615": 3349,
      "2505": 3350,
      "2520": 3351,
      "2580": 3352,
      "2660": 3353,
      "2605": 3354,
      "2375": 3355,
      "2630": 3356,
      "2565": 3357,
      "2500": 3358,
      "2525": 3359,
      "2575": 3360,
      "2490": 3361,
      "2425": 3362,
      "2325": 3363,
      "2725": 3364,
      "2485": 3365,
      "2640": 3366,
      "2545": 3367,
      "2590": 3368,
      "2495": 3369,
      "2510": 3370,
      "9525": 3371,
      "2440": 3372,
      "9470": 3373,
      "9540": 3374,
      "2410": 3375,
      "2680": 3376,
      "2655": 3377,
      "2530": 3378,
      "2620": 3379,
      "9465": 3380,
      "2535": 3381,
      "9500": 3382,
      "2600": 3383,
      "2445": 3384,
      "2635": 3385,
      "9480": 3386,
      "2650": 3387,
      "2595": 3388,
      "9495": 3389,
      "2735": 3390,
      "2555": 3391,
      "9475": 3392,
      "2515": 3393,
      "2710": 3394,
      "2705": 3395,
      "2880": 3396,
      "9515": 3397,
      "2625": 3398,
      "2800": 3399,
      "2645": 3400,
      "2740": 3401,
      "2755": 3402,
      "2810": 3403,
      "9535": 3404,
      "2690": 3405,
      "2815": 3406,
      "2540": 3407,
      "2795": 3408,
      "2835": 3409,
      "145": 3410,
      "2855": 3411,
      "9445": 3412,
      "9450": 3413,
      "9520": 3414,
      "2665": 3415,
      "9440": 3416,
      "2745": 3417,
      "2750": 3418,
      "9420": 3419,
      "2730": 3420,
      "2585": 3421,
      "9530": 3422,
      "2790": 3423,
      "2560": 3424,
      "2775": 3425,
      "9425": 3426,
      "2700": 3427,
      "9570": 3428,
      "9485": 3429,
      "2715": 3430,
      "2845": 3431,
      "9490": 3432,
      "2675": 3433,
      "9550": 3434,
      "2695": 3435,
      "9505": 3436,
      "9430": 3437,
      "2890": 3438,
      "9390": 3439,
      "2685": 3440,
      "9435": 3441,
      "9410": 3442,
      "2770": 3443,
      "2840": 3444,
      "2930": 3445,
      "9510": 3446,
      "2830": 3447,
      "2670": 3448,
      "2765": 3449,
      "2980": 3450,
      "2820": 3451,
      "9405": 3452,
      "9415": 3453,
      "3095": 3454,
      "2905": 3455,
      "2885": 3456,
      "2860": 3457,
      "2985": 3458,
      "2805": 3459,
      "3010": 3460,
      "2610": 3461,
      "9460": 3462,
      "9370": 3463,
      "3020": 3464,
      "2720": 3465,
      "3000": 3466,
      "2900": 3467,
      "9560": 3468,
      "3065": 3469,
      "2865": 3470,
      "2920": 3471,
      "2940": 3472,
      "2760": 3473,
      "2910": 3474,
      "2780": 3475,
      "2870": 3476,
      "2785": 3477,
      "9400": 3478,
      "9455": 3479,
      "9555": 3480,
      "2935": 3481,
      "2995": 3482,
      "9380": 3483,
      "3025": 3484,
      "3040": 3485,
      "2915": 3486,
      "9545": 3487,
      "3080": 3488,
      "2975": 3489,
      "9395": 3490,
      "2990": 3491,
      "3005": 3492,
      "3030": 3493,
      "3070": 3494,
      "3050": 3495,
      "2965": 3496,
      "3120": 3497,
      "2825": 3498,
      "3085": 3499,
      "2850": 3500,
      "3285": 3501,
      "2875": 3502,
      "2960": 3503,
      "3055": 3504,
      "2925": 3505,
      "2945": 3506,
      "9375": 3507,
      "3160": 3508,
      "9575": 3509,
      "2955": 3510,
      "3100": 3511,
      "3275": 3512,
      "9365": 3513,
      "9565": 3514,
      "3310": 3515,
      "9580": 3516,
      "2950": 3517,
      "2970": 3518,
      "9585": 3519,
      "3035": 3520,
      "3180": 3521,
      "3130": 3522,
      "3315": 3523,
      "3325": 3524,
      "9355": 3525,
      "3075": 3526,
      "3450": 3527,
      "3250": 3528,
      "9590": 3529,
      "3045": 3530,
      "3320": 3531,
      "3460": 3532,
      "3240": 3533,
      "2895": 3534,
      "3105": 3535,
      "3245": 3536,
      "9320": 3537,
      "3015": 3538,
      "3140": 3539,
      "3290": 3540,
      "3155": 3541,
      "3470": 3542,
      "3200": 3543,
      "9330": 3544,
      "3170": 3545,
      "3455": 3546,
      "3205": 3547,
      "3220": 3548,
      "3190": 3549,
      "3090": 3550,
      "3175": 3551,
      "3150": 3552,
      "3145": 3553,
      "3185": 3554,
      "3125": 3555,
      "3165": 3556,
      "3110": 3557,
      "3300": 3558,
      "9325": 3559,
      "3330": 3560,
      "3545": 3561,
      "3350": 3562,
      "9600": 3563,
      "3270": 3564,
      "3060": 3565,
      "3610": 3566,
      "3235": 3567,
      "3225": 3568,
      "3425": 3569,
      "9385": 3570,
      "3340": 3571,
      "3345": 3572,
      "3510": 3573,
      "3255": 3574,
      "3430": 3575,
      "3305": 3576,
      "3380": 3577,
      "3495": 3578,
      "3525": 3579,
      "3365": 3580,
      "3395": 3581,
      "3295": 3582,
      "3475": 3583,
      "9595": 3584,
      "3420": 3585,
      "3215": 3586,
      "3355": 3587,
      "3360": 3588,
      "3210": 3589,
      "3550": 3590,
      "3660": 3591,
      "3735": 3592,
      "3945": 3593,
      "3465": 3594,
      "3590": 3595,
      "3115": 3596,
      "3135": 3597,
      "3835": 3598,
      "3490": 3599,
      "3230": 3600,
      "9340": 3601,
      "3600": 3602,
      "3540": 3603,
      "3260": 3604,
      "3500": 3605,
      "3195": 3606,
      "3280": 3607,
      "3555": 3608,
      "3620": 3609,
      "3670": 3610,
      "3700": 3611,
      "3780": 3612,
      "9360": 3613,
      "9345": 3614,
      "3575": 3615,
      "3625": 3616,
      "3655": 3617,
      "3690": 3618,
      "3405": 3619,
      "3560": 3620,
      "3720": 3621,
      "3890": 3622,
      "3400": 3623,
      "9300": 3624,
      "3750": 3625,
      "3740": 3626,
      "3920": 3627,
      "3370": 3628,
      "3520": 3629,
      "9335": 3630,
      "3505": 3631,
      "3390": 3632,
      "3595": 3633,
      "3640": 3634,
      "3265": 3635,
      "3480": 3636,
      "3565": 3637,
      "3570": 3638,
      "3775": 3639,
      "3485": 3640,
      "3435": 3641,
      "9290": 3642,
      "3585": 3643,
      "4455": 3644,
      "3535": 3645,
      "3515": 3646,
      "3580": 3647,
      "3755": 3648,
      "3385": 3649,
      "9310": 3650,
      "3795": 3651,
      "3765": 3652,
      "9615": 3653,
      "3335": 3654,
      "3445": 3655,
      "9315": 3656,
      "4020": 3657,
      "3650": 3658,
      "3715": 3659,
      "3995": 3660,
      "3415": 3661,
      "3530": 3662,
      "3615": 3663,
      "3375": 3664,
      "3440": 3665,
      "3745": 3666,
      "3675": 3667,
      "3960": 3668,
      "4290": 3669,
      "3900": 3670,
      "3410": 3671,
      "3605": 3672,
      "3910": 3673,
      "9630": 3674,
      "4095": 3675,
      "4050": 3676,
      "3680": 3677,
      "3845": 3678,
      "4000": 3679,
      "3695": 3680,
      "3730": 3681,
      "3830": 3682,
      "4230": 3683,
      "3630": 3684,
      "3980": 3685,
      "9620": 3686,
      "9350": 3687,
      "9305": 3688,
      "3760": 3689,
      "4385": 3690,
      "4260": 3691,
      "4085": 3692,
      "3725": 3693,
      "4480": 3694,
      "9605": 3695,
      "4065": 3696,
      "3790": 3697,
      "3935": 3698,
      "3975": 3699,
      "3820": 3700,
      "3895": 3701,
      "4045": 3702,
      "3785": 3703,
      "3925": 3704,
      "3870": 3705,
      "4255": 3706,
      "4055": 3707,
      "3705": 3708,
      "3770": 3709,
      "3635": 3710,
      "3970": 3711,
      "9270": 3712,
      "4505": 3713,
      "3955": 3714,
      "3805": 3715,
      "3645": 3716,
      "3665": 3717,
      "3985": 3718,
      "3825": 3719,
      "4005": 3720,
      "3990": 3721,
      "3815": 3722,
      "4115": 3723,
      "4405": 3724,
      "4320": 3725,
      "3965": 3726,
      "3800": 3727,
      "4100": 3728,
      "4395": 3729,
      "4270": 3730,
      "4090": 3731,
      "4205": 3732,
      "4935": 3733,
      "9610": 3734,
      "4400": 3735,
      "4440": 3736,
      "4240": 3737,
      "3930": 3738,
      "4315": 3739,
      "4150": 3740,
      "3710": 3741,
      "4675": 3742,
      "3850": 3743,
      "3855": 3744,
      "3685": 3745,
      "9625": 3746,
      "4030": 3747,
      "3875": 3748,
      "4200": 3749,
      "4035": 3750,
      "5020": 3751,
      "4370": 3752,
      "4580": 3753,
      "4670": 3754,
      "4225": 3755,
      "5450": 3756,
      "3940": 3757,
      "3865": 3758,
      "3860": 3759,
      "4810": 3760,
      "4245": 3761,
      "4110": 3762,
      "5140": 3763,
      "4420": 3764,
      "4545": 3765,
      "4130": 3766,
      "4170": 3767,
      "4380": 3768,
      "4275": 3769,
      "9295": 3770,
      "9285": 3771,
      "4070": 3772,
      "4770": 3773,
      "4210": 3774,
      "3810": 3775,
      "3880": 3776,
      "4120": 3777,
      "4165": 3778,
      "4190": 3779,
      "4745": 3780,
      "4780": 3781,
      "4970": 3782,
      "4660": 3783,
      "4360": 3784,
      "3950": 3785,
      "3915": 3786,
      "4330": 3787,
      "4415": 3788,
      "4530": 3789,
      "4075": 3790,
      "9635": 3791,
      "4800": 3792,
      "4375": 3793,
      "4160": 3794,
      "5370": 3795,
      "9280": 3796,
      "4500": 3797,
      "4025": 3798,
      "4060": 3799,
      "4650": 3800,
      "3840": 3801,
      "4125": 3802,
      "4195": 3803,
      "4285": 3804,
      "4490": 3805,
      "4010": 3806,
      "4080": 3807,
      "3905": 3808,
      "4175": 3809,
      "4620": 3810,
      "4430": 3811,
      "5295": 3812,
      "4535": 3813,
      "4015": 3814,
      "4040": 3815,
      "4135": 3816,
      "4185": 3817,
      "4250": 3818,
      "4300": 3819,
      "9265": 3820,
      "4105": 3821,
      "4295": 3822,
      "4340": 3823,
      "5445": 3824,
      "4705": 3825,
      "4695": 3826,
      "4910": 3827,
      "4350": 3828,
      "4325": 3829,
      "4470": 3830,
      "4215": 3831,
      "4445": 3832,
      "5070": 3833,
      "5120": 3834,
      "5805": 3835,
      "5420": 3836,
      "5605": 3837,
      "4520": 3838,
      "4560": 3839,
      "4725": 3840,
      "4820": 3841,
      "5170": 3842,
      "5355": 3843,
      "4140": 3844,
      "4865": 3845,
      "4425": 3846,
      "4475": 3847,
      "4685": 3848,
      "4700": 3849,
      "4355": 3850,
      "5265": 3851,
      "4805": 3852,
      "4625": 3853,
      "4710": 3854,
      "4870": 3855,
      "4410": 3856,
      "4460": 3857,
      "9275": 3858,
      "5085": 3859,
      "4755": 3860,
      "4145": 3861,
      "4450": 3862,
      "4235": 3863,
      "5205": 3864,
      "4550": 3865,
      "4365": 3866,
      "4495": 3867,
      "5480": 3868,
      "4540": 3869,
      "4795": 3870,
      "4790": 3871,
      "4920": 3872,
      "5915": 3873,
      "5460": 3874,
      "6340": 3875,
      "4515": 3876,
      "4555": 3877,
      "4750": 3878,
      "3885": 3879,
      "4635": 3880,
      "4845": 3881,
      "4875": 3882,
      "4310": 3883,
      "5280": 3884,
      "5235": 3885,
      "6355": 3886,
      "5520": 3887,
      "4155": 3888,
      "4860": 3889,
      "5290": 3890,
      "4565": 3891,
      "4940": 3892,
      "4345": 3893,
      "5345": 3894,
      "6430": 3895,
      "5000": 3896,
      "4900": 3897,
      "4335": 3898,
      "5310": 3899,
      "5180": 3900,
      "5880": 3901,
      "5395": 3902,
      "5245": 3903,
      "6250": 3904,
      "4840": 3905,
      "4995": 3906,
      "5125": 3907,
      "4220": 3908,
      "5330": 3909,
      "5485": 3910,
      "4510": 3911,
      "4590": 3912,
      "4905": 3913,
      "4630": 3914,
      "4730": 3915,
      "4815": 3916,
      "5885": 3917,
      "5955": 3918,
      "4305": 3919,
      "4465": 3920,
      "5390": 3921,
      "5285": 3922,
      "5035": 3923,
      "4610": 3924,
      "4765": 3925,
      "4760": 3926,
      "4265": 3927,
      "4485": 3928,
      "4435": 3929,
      "5800": 3930,
      "4775": 3931,
      "4895": 3932,
      "5640": 3933,
      "5005": 3934,
      "4390": 3935,
      "5350": 3936,
      "5220": 3937,
      "5195": 3938,
      "5130": 3939,
      "5610": 3940,
      "5825": 3941,
      "5105": 3942,
      "140": 3943,
      "5270": 3944,
      "4570": 3945,
      "5500": 3946,
      "5635": 3947,
      "5830": 3948,
      "5365": 3949,
      "4655": 3950,
      "4950": 3951,
      "4605": 3952,
      "4850": 3953,
      "4855": 3954,
      "4885": 3955,
      "4925": 3956,
      "5740": 3957,
      "5770": 3958,
      "5340": 3959,
      "5225": 3960,
      "5650": 3961,
      "4665": 3962,
      "4680": 3963,
      "5735": 3964,
      "5115": 3965,
      "5685": 3966,
      "5910": 3967,
      "5930": 3968,
      "5100": 3969,
      "5040": 3970,
      "5080": 3971,
      "5590": 3972,
      "4615": 3973,
      "4720": 3974,
      "4985": 3975,
      "5730": 3976,
      "5110": 3977,
      "6015": 3978,
      "4690": 3979,
      "4740": 3980,
      "5210": 3981,
      "6010": 3982,
      "5515": 3983,
      "5530": 3984,
      "5585": 3985,
      "4180": 3986,
      "5785": 3987,
      "9640": 3988,
      "5190": 3989,
      "6630": 3990,
      "5215": 3991,
      "5240": 3992,
      "5090": 3993,
      "5510": 3994,
      "4640": 3995,
      "4715": 3996,
      "4980": 3997,
      "5970": 3998,
      "6125": 3999,
      "5855": 4000,
      "5905": 4001,
      "5095": 4002,
      "5050": 4003,
      "5720": 4004,
      "5160": 4005,
      "5680": 4006,
      "6120": 4007,
      "6470": 4008,
      "6550": 4009,
      "5025": 4010,
      "5065": 4011,
      "5075": 4012,
      "5525": 4013,
      "4880": 4014,
      "4890": 4015,
      "5230": 4016,
      "9260": 4017,
      "5545": 4018,
      "4600": 4019,
      "4830": 4020,
      "4990": 4021,
      "5695": 4022,
      "6160": 4023,
      "5155": 4024,
      "5250": 4025,
      "5375": 4026,
      "5495": 4027,
      "6365": 4028,
      "6255": 4029,
      "6205": 4030,
      "9240": 4031,
      "4595": 4032,
      "5015": 4033,
      "5570": 4034,
      "6195": 4035,
      "6005": 4036,
      "5470": 4037,
      "5505": 4038,
      "5750": 4039,
      "9245": 4040,
      "6580": 4041,
      "6590": 4042,
      "6095": 4043,
      "6085": 4044,
      "5820": 4045,
      "6645": 4046,
      "5320": 4047,
      "5440": 4048,
      "4525": 4049,
      "4575": 4050,
      "4585": 4051,
      "6540": 4052,
      "6025": 4053,
      "5010": 4054,
      "5760": 4055,
      "5380": 4056,
      "5425": 4057,
      "5435": 4058,
      "6065": 4059,
      "5575": 4060,
      "5560": 4061,
      "4835": 4062,
      "4915": 4063,
      "5645": 4064,
      "5630": 4065,
      "5960": 4066,
      "6505": 4067,
      "5900": 4068,
      "5385": 4069,
      "5465": 4070,
      "9655": 4071,
      "6030": 4072,
      "5045": 4073,
      "5790": 4074,
      "5810": 4075,
      "5275": 4076,
      "5200": 4077,
      "6305": 4078,
      "6455": 4079,
      "6500": 4080,
      "5060": 4081,
      "5895": 4082,
      "5935": 4083,
      "5980": 4084,
      "5410": 4085,
      "6280": 4086,
      "6045": 4087,
      "5550": 4088,
      "4735": 4089,
      "6770": 4090,
      "5405": 4091,
      "6150": 4092,
      "7010": 4093,
      "4645": 4094,
      "5865": 4095,
      "5875": 4096,
      "5150": 4097,
      "5305": 4098,
      "5490": 4099,
      "9250": 4100,
      "4955": 4101,
      "4945": 4102,
      "5135": 4103,
      "5840": 4104,
      "7165": 4105,
      "5255": 4106,
      "6480": 4107,
      "6240": 4108,
      "6225": 4109,
      "6090": 4110,
      "4975": 4111,
      "5870": 4112,
      "5965": 4113,
      "7140": 4114,
      "6315": 4115,
      "6275": 4116,
      "6260": 4117,
      "6805": 4118,
      "5940": 4119,
      "4280": 4120,
      "5850": 4121,
      "6395": 4122,
      "6245": 4123,
      "5030": 4124,
      "5055": 4125,
      "4965": 4126,
      "4960": 4127,
      "5620": 4128,
      "6625": 4129,
      "5300": 4130,
      "5360": 4131,
      "5260": 4132,
      "7435": 4133,
      "6535": 4134,
      "6060": 4135,
      "7070": 4136,
      "5565": 4137,
      "4785": 4138,
      "5725": 4139,
      "5795": 4140,
      "5185": 4141,
      "5835": 4142,
      "6115": 4143,
      "6810": 4144,
      "6000": 4145,
      "6485": 4146,
      "6235": 4147,
      "6595": 4148,
      "6080": 4149,
      "6050": 4150,
      "4825": 4151,
      "5845": 4152,
      "5985": 4153,
      "7145": 4154,
      "6350": 4155,
      "6410": 4156,
      "6855": 4157,
      "9225": 4158,
      "6140": 4159,
      "6980": 4160,
      "5755": 4161,
      "5430": 4162,
      "6270": 4163,
      "6650": 4164,
      "6525": 4165,
      "6035": 4166,
      "4930": 4167,
      "5700": 4168,
      "5890": 4169,
      "5945": 4170,
      "5975": 4171,
      "6620": 4172,
      "6135": 4173,
      "5455": 4174,
      "5475": 4175,
      "6460": 4176,
      "6440": 4177,
      "6075": 4178,
      "5710": 4179,
      "5745": 4180,
      "5995": 4181,
      "5950": 4182,
      "6375": 4183,
      "6400": 4184,
      "5555": 4185,
      "6110": 4186,
      "5335": 4187,
      "6295": 4188,
      "6230": 4189,
      "6685": 4190,
      "6780": 4191,
      "5705": 4192,
      "6200": 4193,
      "9210": 4194,
      "5815": 4195,
      "6130": 4196,
      "6385": 4197,
      "6330": 4198,
      "6290": 4199,
      "6335": 4200,
      "6210": 4201,
      "7100": 4202,
      "9255": 4203,
      "6610": 4204,
      "5315": 4205,
      "6495": 4206,
      "6435": 4207,
      "6520": 4208,
      "5780": 4209,
      "6700": 4210,
      "5325": 4211,
      "5655": 4212,
      "7210": 4213,
      "5175": 4214,
      "6175": 4215,
      "6710": 4216,
      "6975": 4217,
      "6800": 4218,
      "6465": 4219,
      "6605": 4220,
      "5670": 4221,
      "6190": 4222,
      "6730": 4223,
      "7160": 4224,
      "6820": 4225,
      "6415": 4226,
      "6420": 4227,
      "6850": 4228,
      "6705": 4229,
      "7230": 4230,
      "7060": 4231,
      "5765": 4232,
      "6695": 4233,
      "6155": 4234,
      "6380": 4235,
      "5715": 4236,
      "5925": 4237,
      "6690": 4238,
      "6180": 4239,
      "5415": 4240,
      "6300": 4241,
      "6215": 4242,
      "7315": 4243,
      "7285": 4244,
      "7225": 4245,
      "6040": 4246,
      "5535": 4247,
      "5145": 4248,
      "5165": 4249,
      "5625": 4250,
      "6600": 4251,
      "7470": 4252,
      "6585": 4253,
      "5540": 4254,
      "5675": 4255,
      "5660": 4256,
      "5690": 4257,
      "6185": 4258,
      "6885": 4259,
      "6450": 4260,
      "6310": 4261,
      "6565": 4262,
      "5920": 4263,
      "5990": 4264,
      "6165": 4265,
      "6170": 4266,
      "6785": 4267,
      "6900": 4268,
      "6345": 4269,
      "7220": 4270,
      "5775": 4271,
      "6880": 4272,
      "6370": 4273,
      "6545": 4274,
      "7500": 4275,
      "6070": 4276,
      "7030": 4277,
      "7075": 4278,
      "6675": 4279,
      "6680": 4280,
      "7180": 4281,
      "6105": 4282,
      "7000": 4283,
      "6390": 4284,
      "6325": 4285,
      "6655": 4286,
      "9235": 4287,
      "6510": 4288,
      "6575": 4289,
      "7035": 4290,
      "5580": 4291,
      "9645": 4292,
      "6660": 4293,
      "7725": 4294,
      "6360": 4295,
      "7465": 4296,
      "9215": 4297,
      "7045": 4298,
      "6795": 4299,
      "6935": 4300,
      "5400": 4301,
      "6100": 4302,
      "6220": 4303,
      "9220": 4304,
      "6530": 4305,
      "6020": 4306,
      "6945": 4307,
      "6830": 4308,
      "6425": 4309,
      "6905": 4310,
      "7325": 4311,
      "7280": 4312,
      "6560": 4313,
      "7055": 4314,
      "6665": 4315,
      "6745": 4316,
      "7820": 4317,
      "6755": 4318,
      "7375": 4319,
      "7390": 4320,
      "6740": 4321,
      "6760": 4322,
      "6910": 4323,
      "6955": 4324,
      "7310": 4325,
      "7300": 4326,
      "9230": 4327,
      "7555": 4328,
      "7110": 4329,
      "6915": 4330,
      "7295": 4331,
      "6055": 4332,
      "7020": 4333,
      "5600": 4334,
      "5665": 4335,
      "6930": 4336,
      "6875": 4337,
      "7615": 4338,
      "6405": 4339,
      "7800": 4340,
      "6865": 4341,
      "7830": 4342,
      "7885": 4343,
      "9180": 4344,
      "7270": 4345,
      "7575": 4346,
      "5595": 4347,
      "9675": 4348,
      "6920": 4349,
      "6985": 4350,
      "6825": 4351,
      "6265": 4352,
      "7355": 4353,
      "6570": 4354,
      "7550": 4355,
      "6670": 4356,
      "6725": 4357,
      "7175": 4358,
      "6870": 4359,
      "7635": 4360,
      "7305": 4361,
      "7150": 4362,
      "6970": 4363,
      "7710": 4364,
      "7250": 4365,
      "9650": 4366,
      "5615": 4367,
      "7120": 4368,
      "6965": 4369,
      "6845": 4370,
      "6840": 4371,
      "7920": 4372,
      "7340": 4373,
      "7950": 4374,
      "6640": 4375,
      "6775": 4376,
      "7610": 4377,
      "7620": 4378,
      "6950": 4379,
      "7415": 4380,
      "9200": 4381,
      "7085": 4382,
      "6615": 4383,
      "6735": 4384,
      "7345": 4385,
      "7460": 4386,
      "7485": 4387,
      "7240": 4388,
      "7235": 4389,
      "5860": 4390,
      "6720": 4391,
      "7135": 4392,
      "6835": 4393,
      "7600": 4394,
      "7835": 4395,
      "6285": 4396,
      "7320": 4397,
      "7420": 4398,
      "7335": 4399,
      "7565": 4400,
      "7560": 4401,
      "7015": 4402,
      "7170": 4403,
      "6890": 4404,
      "7815": 4405,
      "135": 4406,
      "6445": 4407,
      "7495": 4408,
      "7480": 4409,
      "6555": 4410,
      "8175": 4411,
      "6320": 4412,
      "7350": 4413,
      "7385": 4414,
      "7255": 4415,
      "7265": 4416,
      "7590": 4417,
      "7090": 4418,
      "6145": 4419,
      "7185": 4420,
      "7190": 4421,
      "6995": 4422,
      "6990": 4423,
      "7845": 4424,
      "7105": 4425,
      "7455": 4426,
      "9205": 4427,
      "9665": 4428,
      "7640": 4429,
      "7005": 4430,
      "7750": 4431,
      "7050": 4432,
      "6790": 4433,
      "7810": 4434,
      "7895": 4435,
      "7930": 4436,
      "7260": 4437,
      "7040": 4438,
      "7065": 4439,
      "8070": 4440,
      "7125": 4441,
      "7730": 4442,
      "9175": 4443,
      "6750": 4444,
      "7525": 4445,
      "7025": 4446,
      "6635": 4447,
      "6925": 4448,
      "7665": 4449,
      "7685": 4450,
      "130": 4451,
      "7425": 4452,
      "7605": 4453,
      "6940": 4454,
      "7700": 4455,
      "7865": 4456,
      "6490": 4457,
      "7395": 4458,
      "7410": 4459,
      "7520": 4460,
      "7530": 4461,
      "6815": 4462,
      "7735": 4463,
      "7505": 4464,
      "7705": 4465,
      "7155": 4466,
      "8100": 4467,
      "7535": 4468,
      "7545": 4469,
      "6715": 4470,
      "6960": 4471,
      "7645": 4472,
      "7670": 4473,
      "7875": 4474,
      "7925": 4475,
      "6475": 4476,
      "7440": 4477,
      "7245": 4478,
      "7080": 4479,
      "8055": 4480,
      "7115": 4481,
      "6895": 4482,
      "7365": 4483,
      "7490": 4484,
      "7130": 4485,
      "7630": 4486,
      "7660": 4487,
      "7785": 4488,
      "7780": 4489,
      "8135": 4490,
      "8120": 4491,
      "9185": 4492,
      "7450": 4493,
      "8095": 4494,
      "9170": 4495,
      "7215": 4496,
      "8620": 4497,
      "7095": 4498,
      "9680": 4499,
      "7870": 4500,
      "9195": 4501,
      "9190": 4502,
      "7475": 4503,
      "7205": 4504,
      "8200": 4505,
      "7580": 4506,
      "7720": 4507,
      "7770": 4508,
      "8165": 4509,
      "7275": 4510,
      "7380": 4511,
      "7905": 4512,
      "8465": 4513,
      "8440": 4514,
      "7595": 4515,
      "7860": 4516,
      "8160": 4517,
      "7990": 4518,
      "7405": 4519,
      "8050": 4520,
      "7795": 4521,
      "7825": 4522,
      "8170": 4523,
      "8385": 4524,
      "8215": 4525,
      "7515": 4526,
      "7570": 4527,
      "6765": 4528,
      "7880": 4529,
      "7945": 4530,
      "7200": 4531,
      "7655": 4532,
      "8380": 4533,
      "7680": 4534,
      "7775": 4535,
      "8115": 4536,
      "120": 4537,
      "7360": 4538,
      "7400": 4539,
      "7290": 4540,
      "8155": 4541,
      "8060": 4542,
      "9660": 4543,
      "9670": 4544,
      "6860": 4545,
      "7740": 4546,
      "8140": 4547,
      "9135": 4548,
      "7625": 4549,
      "7745": 4550,
      "8675": 4551,
      "6515": 4552,
      "7510": 4553,
      "7540": 4554,
      "7195": 4555,
      "7760": 4556,
      "8365": 4557,
      "8015": 4558,
      "7790": 4559,
      "7890": 4560,
      "7915": 4561,
      "7995": 4562,
      "7330": 4563,
      "7430": 4564,
      "7650": 4565,
      "7765": 4566,
      "7445": 4567,
      "7805": 4568,
      "8090": 4569,
      "7840": 4570,
      "9130": 4571,
      "125": 4572,
      "8325": 4573,
      "7960": 4574,
      "7970": 4575,
      "8310": 4576,
      "8265": 4577,
      "8750": 4578,
      "7690": 4579,
      "8720": 4580,
      "7755": 4581,
      "7855": 4582,
      "8375": 4583,
      "8230": 4584,
      "8045": 4585,
      "8085": 4586,
      "7715": 4587,
      "8185": 4588,
      "7910": 4589,
      "8205": 4590,
      "8030": 4591,
      "8195": 4592,
      "7370": 4593,
      "8485": 4594,
      "7975": 4595,
      "8350": 4596,
      "8275": 4597,
      "8295": 4598,
      "8330": 4599,
      "8270": 4600,
      "8110": 4601,
      "8105": 4602,
      "7850": 4603,
      "8670": 4604,
      "9685": 4605,
      "8145": 4606,
      "7940": 4607,
      "9150": 4608,
      "8010": 4609,
      "8020": 4610,
      "8080": 4611,
      "8505": 4612,
      "7695": 4613,
      "8000": 4614,
      "8130": 4615,
      "7980": 4616,
      "7900": 4617,
      "8460": 4618,
      "9100": 4619,
      "7585": 4620,
      "8500": 4621,
      "8065": 4622,
      "7955": 4623,
      "8315": 4624,
      "8360": 4625,
      "8635": 4626,
      "7985": 4627,
      "8430": 4628,
      "8425": 4629,
      "8445": 4630,
      "8150": 4631,
      "9155": 4632,
      "8005": 4633,
      "8285": 4634,
      "8470": 4635,
      "8225": 4636,
      "8640": 4637,
      "8525": 4638,
      "8570": 4639,
      "8190": 4640,
      "7935": 4641,
      "8740": 4642,
      "8340": 4643,
      "8625": 4644,
      "8515": 4645,
      "8180": 4646,
      "9140": 4647,
      "8650": 4648,
      "8705": 4649,
      "8695": 4650,
      "8025": 4651,
      "8250": 4652,
      "8545": 4653,
      "8125": 4654,
      "8355": 4655,
      "8075": 4656,
      "9145": 4657,
      "8715": 4658,
      "8630": 4659,
      "8520": 4660,
      "8735": 4661,
      "8760": 4662,
      "8320": 4663,
      "8390": 4664,
      "8420": 4665,
      "8220": 4666,
      "8615": 4667,
      "9070": 4668,
      "8400": 4669,
      "8480": 4670,
      "8035": 4671,
      "9095": 4672,
      "9080": 4673,
      "7675": 4674,
      "9125": 4675,
      "8240": 4676,
      "8610": 4677,
      "8040": 4678,
      "8255": 4679,
      "8435": 4680,
      "8535": 4681,
      "8710": 4682,
      "8370": 4683,
      "8415": 4684,
      "8555": 4685,
      "9120": 4686,
      "8475": 4687,
      "8300": 4688,
      "8680": 4689,
      "8590": 4690,
      "8550": 4691,
      "9165": 4692,
      "8290": 4693,
      "8345": 4694,
      "8495": 4695,
      "8210": 4696,
      "9160": 4697,
      "8455": 4698,
      "8245": 4699,
      "8560": 4700,
      "8645": 4701,
      "8810": 4702,
      "8305": 4703,
      "8280": 4704,
      "8335": 4705,
      "8600": 4706,
      "8685": 4707,
      "8530": 4708,
      "8700": 4709,
      "8840": 4710,
      "9105": 4711,
      "8690": 4712,
      "8510": 4713,
      "8860": 4714,
      "8960": 4715,
      "8800": 4716,
      "8950": 4717,
      "8565": 4718,
      "8660": 4719,
      "9090": 4720,
      "8725": 4721,
      "8820": 4722,
      "8235": 4723,
      "8540": 4724,
      "9035": 4725,
      "9085": 4726,
      "7965": 4727,
      "8450": 4728,
      "8575": 4729,
      "8795": 4730,
      "8790": 4731,
      "8910": 4732,
      "8395": 4733,
      "8585": 4734,
      "8580": 4735,
      "8825": 4736,
      "8880": 4737,
      "8410": 4738,
      "8905": 4739,
      "9690": 4740,
      "8780": 4741,
      "8835": 4742,
      "8755": 4743,
      "8805": 4744,
      "9030": 4745,
      "8745": 4746,
      "8850": 4747,
      "8855": 4748,
      "9015": 4749,
      "9020": 4750,
      "9110": 4751,
      "8775": 4752,
      "8865": 4753,
      "8890": 4754,
      "8930": 4755,
      "8980": 4756,
      "8955": 4757,
      "8260": 4758,
      "8655": 4759,
      "9065": 4760,
      "9000": 4761,
      "9115": 4762,
      "8730": 4763,
      "8875": 4764,
      "8995": 4765,
      "8985": 4766,
      "8490": 4767,
      "8765": 4768,
      "8770": 4769,
      "8815": 4770,
      "8605": 4771,
      "8665": 4772,
      "8845": 4773,
      "8830": 4774,
      "8940": 4775,
      "8965": 4776,
      "8975": 4777,
      "8405": 4778,
      "9025": 4779,
      "8945": 4780,
      "8785": 4781,
      "9005": 4782,
      "8885": 4783,
      "8990": 4784,
      "9010": 4785,
      "9060": 4786,
      "8935": 4787,
      "8870": 4788,
      "9700": 4789,
      "8925": 4790,
      "8595": 4791,
      "8895": 4792,
      "8915": 4793,
      "8920": 4794,
      "9050": 4795,
      "8970": 4796,
      "9695": 4797,
      "8900": 4798,
      "9045": 4799,
      "9040": 4800,
      "9075": 4801,
      "9705": 4802,
      "115": 4803,
      "9055": 4804,
      "9730": 4805,
      "9710": 4806,
      "9720": 4807,
      "9715": 4808,
      "9735": 4809,
      "9755": 4810,
      "9725": 4811,
      "9765": 4812,
      "9750": 4813,
      "9745": 4814,
      "9740": 4815,
      "9790": 4816,
      "9785": 4817,
      "9890": 4818,
      "9770": 4819,
      "9780": 4820,
      "9760": 4821,
      "9865": 4822,
      "9825": 4823,
      "9885": 4824,
      "9795": 4825,
      "9810": 4826,
      "9860": 4827,
      "9820": 4828,
      "9830": 4829,
      "9805": 4830,
      "9775": 4831,
      "9880": 4832,
      "105": 4833,
      "9840": 4834,
      "9870": 4835,
      "9815": 4836,
      "9895": 4837,
      "9845": 4838,
      "9835": 4839,
      "9855": 4840,
      "9875": 4841,
      "Ac8s7h": 4842,
      "QhQc4s": 4843,
      "7hQc6d": 4844,
      "2sJc9c": 4845,
      "3d5s7s": 4846,
      "3s6dAs": 4847,
      "3sTd4s": 4848,
      "6s7c6d": 4849,
      "7d5cTc": 4850,
      "7h9sQs": 4851,
      "9d6s6h": 4852,
      "Th3cQh": 4853,
      "Qh3c9c": 4854,
      "AcKd3c": 4855,
      "Ah3c3s": 4856,
      "9dAc3h": 4857,
      "KsTd8s": 4858,
      "4c4hKc": 4859,
      "3d6dAc": 4860,
      "9d7c9h": 4861,
      "3c4cJh": 4862,
      "3s2hJd": 4863,
      "2c9sAh": 4864,
      "2cJh4d": 4865,
      "2dQs8h": 4866,
      "2d8d4h": 4867,
      "2h6sTd": 4868,
      "2s9s4h": 4869,
      "2s5dJs": 4870,
      "3c4hJc": 4871,
      "3cKd3h": 4872,
      "3dQd5c": 4873,
      "3hAs5d": 4874,
      "3s5s8s": 4875,
      "3s6dTd": 4876,
      "3s2cKs": 4877,
      "4c9hAh": 4878,
      "4c3d7c": 4879,
      "4dAd2s": 4880,
      "4hQhTc": 4881,
      "4sKsAc": 4882,
      "5dAhKc": 4883,
      "5d9sAc": 4884,
      "5d7c8s": 4885,
      "5hKhQd": 4886,
      "5s2dTs": 4887,
      "6cQs5s": 4888,
      "6d3c5c": 4889,
      "6hQsKs": 4890,
      "6h7c5h": 4891,
      "7h4s6h": 4892,
      "7h4d6s": 4893,
      "7s8cTd": 4894,
      "8cKh3h": 4895,
      "8c7d8d": 4896,
      "8c5cJc": 4897,
      "8d4s7d": 4898,
      "9c8c7s": 4899,
      "9d2s2d": 4900,
      "Tc2h4d": 4901,
      "TdQc9c": 4902,
      "Td6s5c": 4903,
      "ThQcKd": 4904,
      "Ts5hJc": 4905,
      "Jc6hAs": 4906,
      "Jc2cKd": 4907,
      "JdKcAh": 4908,
      "Qd7hQs": 4909,
      "QsAhJc": 4910,
      "Ks8hQs": 4911,
      "Ks5h7h": 4912,
      "Ac4s4h": 4913,
      "Ad9s2s": 4914,
      "AsJsJd": 4915,
      "AsTdTh": 4916,
      "AhAd4d": 4917,
      "AsAdKh": 4918,
      "TcTs9s": 4919,
      "8c8sQh": 4920,
      "9h9dJc": 4921,
      "AhJcTh": 4922,
      "9sTc7c": 4923,
      "Kh7dKs": 4924,
      "QhJh9s": 4925,
      "QdAc5h": 4926,
      "AhQs4h": 4927,
      "JsKc6d": 4928,
      "JhAdTd": 4929,
      "KhTh4c": 4930,
      "Jh9h4c": 4931,
      "Th9h6d": 4932,
      "3c3s3h": 4933,
      "6sAd4d": 4934,
      "5cAhTd": 4935,
      "AsKs5d": 4936,
      "Th9cAd": 4937,
      "4hQh6h": 4938,
      "9h4h5c": 4939,
      "8d4dAs": 4940,
      "2dAd8h": 4941,
      "7c4c6c": 4942,
      "9sJh4h": 4943,
      "8s2s3d": 4944,
      "Ac9h8s": 4945,
      "2dTd8d": 4946,
      "Qc5h9c": 4947,
      "2s5d7h": 4948,
      "9dTh2d": 4949,
      "Kc2s8d": 4950,
      "Kd3h6d": 4951,
      "8hTc8d": 4952,
      "Kh2dTh": 4953,
      "Ts4cQh": 4954,
      "8h5c6s": 4955,
      "7h2hJd": 4956,
      "Th3d5c": 4957,
      "5hTc5s": 4958,
      "Qs5hTd": 4959,
      "5s4d9c": 4960,
      "6h2s7h": 4961,
      "2cThAc": 4962,
      "2cJsKc": 4963,
      "2c5cKh": 4964,
      "2dAdJs": 4965,
      "2d6h5h": 4966,
      "2dJdAs": 4967,
      "2dKd2h": 4968,
      "2d4h5s": 4969,
      "2d7dJs": 4970,
      "2d6d5s": 4971,
      "2d9s3s": 4972,
      "2hJcTc": 4973,
      "2h3dJd": 4974,
      "2h4dAs": 4975,
      "2h8dAh": 4976,
      "2h5c9s": 4977,
      "2h9c4h": 4978,
      "2h3hKc": 4979,
      "2sKsKd": 4980,
      "2sAdKc": 4981,
      "2sThKs": 4982,
      "3c9s2s": 4983,
      "3cQh8c": 4984,
      "3dTsJs": 4985,
      "3dKcQs": 4986,
      "3d9s8d": 4987,
      "3d9sAh": 4988,
      "3d3h4h": 4989,
      "3d9cTh": 4990,
      "3d6s2s": 4991,
      "3d6s2c": 4992,
      "3d4s8c": 4993,
      "3hQdAd": 4994,
      "3hJhTh": 4995,
      "3hAd7d": 4996,
      "3h9c8h": 4997,
      "3hQc6s": 4998,
      "3sAsJs": 4999
    },
    "merges": [
      [
        "c",
        "c"
      ],
      [
        "p",
        "1"
      ],
      [
        "d",
        "h"
      ],
      [
        "p",
        "3"
      ],
      [
        "p",
        "2"
      ],
      [
        "p",
        "5"
      ],
      [
        "p",
        "4"
      ],
      [
        "p",
        "6"
      ],
      [
        "s",
        "m"
      ],
      [
        "d",
        "b"
      ],
      [
        "b",
        "r"
      ],
      [
        "c",
        "br"
      ],
      [
        "A",
        "d"
      ],
      [
        "A",
        "s"
      ],
      [
        "A",
        "c"
      ],
      [
        "A",
        "h"
      ],
      [
        "K",
        "d"
      ],
      [
        "K",
        "h"
      ],
      [
        "K",
        "s"
      ],
      [
        "K",
        "c"
      ],
      [
        "Q",
        "h"
      ],
      [
        "Q",
        "s"
      ],
      [
        "Q",
        "d"
      ],
      [
        "Q",
        "c"
      ],
      [
        "J",
        "h"
      ],
      [
        "J",
        "s"
      ],
      [
        "J",
        "d"
      ],
      [
        "J",
        "c"
      ],
      [
        "T",
        "s"
      ],
      [
        "T",
        "c"
      ],
      [
        "T",
        "d"
      ],
      [
        "T",
        "h"
      ],
      [
        "9",
        "h"
      ],
      [
        "9",
        "d"
      ],
      [
        "9",
        "c"
      ],
      [
        "9",
        "s"
      ],
      [
        "8",
        "c"
      ],
      [
        "8",
        "h"
      ],
      [
        "8",
        "s"
      ],
      [
        "8",
        "d"
      ],
      [
        "7",
        "s"
      ],
      [
        "7",
        "c"
      ],
      [
        "7",
        "d"
      ],
      [
        "7",
        "h"
      ],
      [
        "6",
        "h"
      ],
      [
        "6",
        "c"
      ],
      [
        "6",
        "s"
      ],
      [
        "5",
        "h"
      ],
      [
        "6",
        "d"
      ],
      [
        "5",
        "s"
      ],
      [
        "5",
        "d"
      ],
      [
        "5",
        "c"
      ],
      [
        "4",
        "s"
      ],
      [
        "4",
        "d"
      ],
      [
        "4",
        "c"
      ],
      [
        "4",
        "h"
      ],
      [
        "3",
        "s"
      ],
      [
        "3",
        "c"
      ],
      [
        "3",
        "d"
      ],
      [
        "2",
        "d"
      ],
      [
        "2",
        "c"
      ],
      [
        "3",
        "h"
      ],
      [
        "2",
        "s"
      ],
      [
        "2",
        "h"
      ],
      [
        "0",
        "0"
      ],
      [
        "1",
        "5"
      ],
      [
        "2",
        "5"
      ],
      [
        "3",
        "5"
      ],
      [
        "1",
        "0"
      ],
      [
        "4",
        "5"
      ],
      [
        "2",
        "0"
      ],
      [
        "9",
        "5"
      ],
      [
        "3",
        "0"
      ],
      [
        "4",
        "0"
      ],
      [
        "6",
        "5"
      ],
      [
        "7",
        "5"
      ],
      [
        "8",
        "5"
      ],
      [
        "6",
        "0"
      ],
      [
        "7",
        "0"
      ],
      [
        "8",
        "0"
      ],
      [
        "9",
        "0"
      ],
      [
        "9",
        "00"
      ],
      [
        "9",
        "900"
      ],
      [
        "5",
        "0"
      ],
      [
        "5",
        "5"
      ],
      [
        "1",
        "1"
      ],
      [
        "1",
        "2"
      ],
      [
        "1",
        "3"
      ],
      [
        "1",
        "4"
      ],
      [
        "1",
        "6"
      ],
      [
        "1",
        "7"
      ],
      [
        "1",
        "8"
      ],
      [
        "8",
        "00"
      ],
      [
        "1",
        "9"
      ],
      [
        "2",
        "1"
      ],
      [
        "2",
        "2"
      ],
      [
        "2",
        "3"
      ],
      [
        "2",
        "4"
      ],
      [
        "2",
        "6"
      ],
      [
        "1",
        "00"
      ],
      [
        "35",
        "0"
      ],
      [
        "9",
        "800"
      ],
      [
        "9",
        "4"
      ],
      [
        "2",
        "7"
      ],
      [
        "35",
        "5"
      ],
      [
        "30",
        "5"
      ],
      [
        "40",
        "5"
      ],
      [
        "45",
        "0"
      ],
      [
        "3",
        "15"
      ],
      [
        "2",
        "8"
      ],
      [
        "45",
        "5"
      ],
      [
        "25",
        "0"
      ],
      [
        "3",
        "75"
      ],
      [
        "2",
        "9"
      ],
      [
        "3",
        "65"
      ],
      [
        "2",
        "75"
      ],
      [
        "3",
        "95"
      ],
      [
        "3",
        "85"
      ],
      [
        "3",
        "20"
      ],
      [
        "3",
        "10"
      ],
      [
        "3",
        "00"
      ],
      [
        "3",
        "90"
      ],
      [
        "2",
        "85"
      ],
      [
        "25",
        "5"
      ],
      [
        "2",
        "95"
      ],
      [
        "3",
        "70"
      ],
      [
        "2",
        "65"
      ],
      [
        "3",
        "30"
      ],
      [
        "3",
        "80"
      ],
      [
        "3",
        "60"
      ],
      [
        "4",
        "00"
      ],
      [
        "2",
        "70"
      ],
      [
        "3",
        "40"
      ],
      [
        "2",
        "90"
      ],
      [
        "3",
        "1"
      ],
      [
        "3",
        "25"
      ],
      [
        "2",
        "80"
      ],
      [
        "3",
        "45"
      ],
      [
        "4",
        "15"
      ],
      [
        "4",
        "20"
      ],
      [
        "4",
        "65"
      ],
      [
        "3",
        "35"
      ],
      [
        "3",
        "6"
      ],
      [
        "4",
        "10"
      ],
      [
        "2",
        "60"
      ],
      [
        "3",
        "7"
      ],
      [
        "4",
        "30"
      ],
      [
        "4",
        "25"
      ],
      [
        "4",
        "75"
      ],
      [
        "4",
        "95"
      ],
      [
        "4",
        "60"
      ],
      [
        "4",
        "85"
      ],
      [
        "4",
        "80"
      ],
      [
        "4",
        "40"
      ],
      [
        "4",
        "35"
      ],
      [
        "4",
        "70"
      ],
      [
        "4",
        "90"
      ],
      [
        "3",
        "9"
      ],
      [
        "2",
        "15"
      ],
      [
        "3",
        "8"
      ],
      [
        "2",
        "45"
      ],
      [
        "4",
        "45"
      ],
      [
        "4",
        "1"
      ],
      [
        "4",
        "6"
      ],
      [
        "2",
        "00"
      ],
      [
        "4",
        "7"
      ],
      [
        "2",
        "40"
      ],
      [
        "2",
        "20"
      ],
      [
        "2",
        "35"
      ],
      [
        "2",
        "30"
      ],
      [
        "2",
        "25"
      ],
      [
        "2",
        "10"
      ],
      [
        "4",
        "8"
      ],
      [
        "4",
        "9"
      ],
      [
        "60",
        "5"
      ],
      [
        "5",
        "7"
      ],
      [
        "9",
        "6"
      ],
      [
        "5",
        "1"
      ],
      [
        "5",
        "6"
      ],
      [
        "5",
        "8"
      ],
      [
        "5",
        "9"
      ],
      [
        "95",
        "0"
      ],
      [
        "5",
        "00"
      ],
      [
        "85",
        "0"
      ],
      [
        "6",
        "6"
      ],
      [
        "65",
        "0"
      ],
      [
        "6",
        "1"
      ],
      [
        "20",
        "5"
      ],
      [
        "6",
        "7"
      ],
      [
        "50",
        "5"
      ],
      [
        "5",
        "15"
      ],
      [
        "7",
        "1"
      ],
      [
        "6",
        "9"
      ],
      [
        "6",
        "8"
      ],
      [
        "5",
        "10"
      ],
      [
        "65",
        "5"
      ],
      [
        "7",
        "6"
      ],
      [
        "7",
        "7"
      ],
      [
        "7",
        "8"
      ],
      [
        "70",
        "5"
      ],
      [
        "15",
        "0"
      ],
      [
        "75",
        "0"
      ],
      [
        "5",
        "30"
      ],
      [
        "5",
        "20"
      ],
      [
        "6",
        "00"
      ],
      [
        "5",
        "25"
      ],
      [
        "8",
        "1"
      ],
      [
        "5",
        "35"
      ],
      [
        "7",
        "9"
      ],
      [
        "5",
        "40"
      ],
      [
        "5",
        "75"
      ],
      [
        "9",
        "1"
      ],
      [
        "5",
        "80"
      ],
      [
        "6",
        "10"
      ],
      [
        "5",
        "85"
      ],
      [
        "5",
        "45"
      ],
      [
        "5",
        "60"
      ],
      [
        "55",
        "5"
      ],
      [
        "5",
        "50"
      ],
      [
        "6",
        "15"
      ],
      [
        "5",
        "90"
      ],
      [
        "8",
        "7"
      ],
      [
        "5",
        "95"
      ],
      [
        "5",
        "70"
      ],
      [
        "75",
        "5"
      ],
      [
        "5",
        "65"
      ],
      [
        "80",
        "5"
      ],
      [
        "6",
        "20"
      ],
      [
        "6",
        "30"
      ],
      [
        "85",
        "5"
      ],
      [
        "8",
        "8"
      ],
      [
        "90",
        "5"
      ],
      [
        "1",
        "95"
      ],
      [
        "6",
        "35"
      ],
      [
        "6",
        "25"
      ],
      [
        "7",
        "00"
      ],
      [
        "8",
        "9"
      ],
      [
        "6",
        "40"
      ],
      [
        "15",
        "5"
      ],
      [
        "Ah",
        "Ad"
      ],
      [
        "As",
        "Ac"
      ],
      [
        "Ah",
        "As"
      ],
      [
        "6",
        "60"
      ],
      [
        "Kc",
        "Kd"
      ],
      [
        "Qd",
        "Qh"
      ],
      [
        "As",
        "Ad"
      ],
      [
        "Qs",
        "Qc"
      ],
      [
        "Ks",
        "Kc"
      ],
      [
        "Ad",
        "Ac"
      ],
      [
        "Jc",
        "Jh"
      ],
      [
        "As",
        "Ah"
      ],
      [
        "Ah",
        "Ac"
      ],
      [
        "Qc",
        "Qd"
      ],
      [
        "Ts",
        "Td"
      ],
      [
        "6",
        "95"
      ],
      [
        "Jd",
        "Jh"
      ],
      [
        "Ac",
        "As"
      ],
      [
        "Kd",
        "Kc"
      ],
      [
        "Ac",
        "Ad"
      ],
      [
        "Ad",
        "As"
      ],
      [
        "Kd",
        "Ks"
      ],
      [
        "Jc",
        "Js"
      ],
      [
        "6",
        "70"
      ],
      [
        "Jd",
        "Js"
      ],
      [
        "7",
        "10"
      ],
      [
        "Qd",
        "Qs"
      ],
      [
        "Kh",
        "Kd"
      ],
      [
        "Qs",
        "Qh"
      ],
      [
        "Qh",
        "Qs"
      ],
      [
        "Kd",
        "Kh"
      ],
      [
        "Kh",
        "Ks"
      ],
      [
        "Kh",
        "Kc"
      ],
      [
        "Ks",
        "Kd"
      ],
      [
        "Ks",
        "Kh"
      ],
      [
        "Ts",
        "Th"
      ],
      [
        "Qc",
        "Qh"
      ],
      [
        "Qh",
        "Qc"
      ],
      [
        "Jh",
        "Jc"
      ],
      [
        "Ac",
        "Ah"
      ],
      [
        "Ad",
        "Ah"
      ],
      [
        "Tc",
        "Ts"
      ],
      [
        "Jd",
        "Jc"
      ],
      [
        "Th",
        "Td"
      ],
      [
        "Kc",
        "Ks"
      ],
      [
        "Th",
        "Ts"
      ],
      [
        "Qd",
        "Qc"
      ],
      [
        "Js",
        "Jc"
      ],
      [
        "Qc",
        "Qs"
      ],
      [
        "Js",
        "Jd"
      ],
      [
        "Qh",
        "Qd"
      ],
      [
        "6",
        "45"
      ],
      [
        "Ah",
        "Jh"
      ],
      [
        "Td",
        "Th"
      ],
      [
        "Kc",
        "Kh"
      ],
      [
        "6",
        "65"
      ],
      [
        "8c",
        "8s"
      ],
      [
        "Qs",
        "Qd"
      ],
      [
        "Ac",
        "Qc"
      ],
      [
        "Ah",
        "Qh"
      ],
      [
        "7d",
        "7h"
      ],
      [
        "6",
        "90"
      ],
      [
        "Ts",
        "Tc"
      ],
      [
        "Tc",
        "Th"
      ],
      [
        "9s",
        "9h"
      ],
      [
        "8h",
        "8d"
      ],
      [
        "Kc",
        "Qc"
      ],
      [
        "Th",
        "Tc"
      ],
      [
        "Jh",
        "Js"
      ],
      [
        "Th",
        "Kh"
      ],
      [
        "Tc",
        "Td"
      ],
      [
        "Qh",
        "Ad"
      ],
      [
        "6",
        "75"
      ],
      [
        "6",
        "80"
      ],
      [
        "Jc",
        "Jd"
      ],
      [
        "9h",
        "9s"
      ],
      [
        "Kd",
        "Ac"
      ],
      [
        "Ah",
        "Js"
      ],
      [
        "8c",
        "8d"
      ],
      [
        "Qd",
        "Kc"
      ],
      [
        "Qd",
        "Ad"
      ],
      [
        "Ad",
        "Kd"
      ],
      [
        "8d",
        "8s"
      ],
      [
        "9d",
        "9c"
      ],
      [
        "As",
        "Kc"
      ],
      [
        "Js",
        "Jh"
      ],
      [
        "Kh",
        "Qd"
      ],
      [
        "Td",
        "Ts"
      ],
      [
        "Qc",
        "Ks"
      ],
      [
        "9d",
        "Ad"
      ],
      [
        "Td",
        "Ac"
      ],
      [
        "8h",
        "8s"
      ],
      [
        "Td",
        "Tc"
      ],
      [
        "7h",
        "7c"
      ],
      [
        "Kc",
        "As"
      ],
      [
        "Ad",
        "Js"
      ],
      [
        "Ts",
        "Qs"
      ],
      [
        "Tc",
        "Ad"
      ],
      [
        "Ah",
        "7h"
      ],
      [
        "9h",
        "9d"
      ],
      [
        "6d",
        "6c"
      ],
      [
        "6s",
        "6c"
      ],
      [
        "8c",
        "Ac"
      ],
      [
        "9h",
        "9c"
      ],
      [
        "As",
        "Js"
      ],
      [
        "As",
        "Kd"
      ],
      [
        "Jh",
        "Jd"
      ],
      [
        "Jc",
        "Kh"
      ],
      [
        "Jh",
        "Qc"
      ],
      [
        "Ad",
        "Kh"
      ],
      [
        "Ah",
        "Jd"
      ],
      [
        "9c",
        "9h"
      ],
      [
        "9c",
        "Kc"
      ],
      [
        "Qh",
        "Kh"
      ],
      [
        "Js",
        "Th"
      ],
      [
        "8d",
        "8h"
      ],
      [
        "Td",
        "Ad"
      ],
      [
        "Ac",
        "Kh"
      ],
      [
        "7c",
        "7s"
      ],
      [
        "Qc",
        "Tc"
      ],
      [
        "9d",
        "Kd"
      ],
      [
        "Qc",
        "Kc"
      ],
      [
        "7",
        "20"
      ],
      [
        "6s",
        "6h"
      ],
      [
        "9c",
        "9s"
      ],
      [
        "As",
        "Jd"
      ],
      [
        "6",
        "85"
      ],
      [
        "Td",
        "Kd"
      ],
      [
        "Ts",
        "Js"
      ],
      [
        "Kh",
        "Jc"
      ],
      [
        "6d",
        "6h"
      ],
      [
        "8d",
        "Ad"
      ],
      [
        "Jh",
        "8h"
      ],
      [
        "Ah",
        "Jc"
      ],
      [
        "Kd",
        "Ad"
      ],
      [
        "Ks",
        "Ah"
      ],
      [
        "Kd",
        "Js"
      ],
      [
        "6h",
        "6c"
      ],
      [
        "9s",
        "Qs"
      ],
      [
        "Jh",
        "Th"
      ],
      [
        "Jh",
        "Qh"
      ],
      [
        "Ac",
        "Kc"
      ],
      [
        "Kh",
        "Qh"
      ],
      [
        "9s",
        "Jc"
      ],
      [
        "Ac",
        "Ks"
      ],
      [
        "5d",
        "Ad"
      ],
      [
        "As",
        "Ts"
      ],
      [
        "8d",
        "8c"
      ],
      [
        "9s",
        "9c"
      ],
      [
        "Qd",
        "Jd"
      ],
      [
        "Jc",
        "9c"
      ],
      [
        "Kh",
        "Ah"
      ],
      [
        "7s",
        "7h"
      ],
      [
        "Qc",
        "Ac"
      ],
      [
        "Qd",
        "As"
      ],
      [
        "Ts",
        "As"
      ],
      [
        "8h",
        "8c"
      ],
      [
        "9c",
        "9d"
      ],
      [
        "Ts",
        "Ks"
      ],
      [
        "Ts",
        "Ac"
      ],
      [
        "Jh",
        "Kh"
      ],
      [
        "Qs",
        "9s"
      ],
      [
        "Jc",
        "Ac"
      ],
      [
        "Ah",
        "Kc"
      ],
      [
        "Ah",
        "Ks"
      ],
      [
        "7c",
        "7h"
      ],
      [
        "Kh",
        "Ac"
      ],
      [
        "7c",
        "7d"
      ],
      [
        "Ad",
        "2d"
      ],
      [
        "As",
        "6s"
      ],
      [
        "Kc",
        "Jc"
      ],
      [
        "8s",
        "Js"
      ],
      [
        "Tc",
        "Jd"
      ],
      [
        "6c",
        "6h"
      ],
      [
        "Qs",
        "As"
      ],
      [
        "As",
        "Qs"
      ],
      [
        "9d",
        "9h"
      ],
      [
        "5d",
        "5s"
      ],
      [
        "Th",
        "Ac"
      ],
      [
        "Jh",
        "As"
      ],
      [
        "Ks",
        "Ad"
      ],
      [
        "9d",
        "9s"
      ],
      [
        "7d",
        "7s"
      ],
      [
        "9d",
        "8d"
      ],
      [
        "Jh",
        "Qs"
      ],
      [
        "Qc",
        "Kh"
      ],
      [
        "Ks",
        "Ac"
      ],
      [
        "9h",
        "Ah"
      ],
      [
        "As",
        "3s"
      ],
      [
        "Kd",
        "Jd"
      ],
      [
        "8c",
        "8h"
      ],
      [
        "Js",
        "Ts"
      ],
      [
        "As",
        "Qd"
      ],
      [
        "9s",
        "Tc"
      ],
      [
        "Kd",
        "Th"
      ],
      [
        "7d",
        "7c"
      ],
      [
        "Jd",
        "Ad"
      ],
      [
        "Kc",
        "Ad"
      ],
      [
        "Ah",
        "5h"
      ],
      [
        "6h",
        "As"
      ],
      [
        "5s",
        "7s"
      ],
      [
        "9d",
        "As"
      ],
      [
        "Jd",
        "Kd"
      ],
      [
        "Ks",
        "Qs"
      ],
      [
        "Jd",
        "Qd"
      ],
      [
        "Js",
        "Qd"
      ],
      [
        "Qc",
        "As"
      ],
      [
        "Kd",
        "Jh"
      ],
      [
        "Kc",
        "Qs"
      ],
      [
        "Kh",
        "Tc"
      ],
      [
        "Ac",
        "Qh"
      ],
      [
        "Ac",
        "Qs"
      ],
      [
        "9d",
        "7s"
      ],
      [
        "9h",
        "Qs"
      ],
      [
        "Ac",
        "Jc"
      ],
      [
        "Ac",
        "7c"
      ],
      [
        "7h",
        "8h"
      ],
      [
        "Td",
        "Ks"
      ],
      [
        "Kh",
        "9h"
      ],
      [
        "Ts",
        "Qh"
      ],
      [
        "Ah",
        "Th"
      ],
      [
        "Kd",
        "Qh"
      ],
      [
        "Kh",
        "7h"
      ],
      [
        "Ad",
        "Jd"
      ],
      [
        "9d",
        "Jd"
      ],
      [
        "Ac",
        "5s"
      ],
      [
        "8s",
        "8d"
      ],
      [
        "Tc",
        "Js"
      ],
      [
        "Kd",
        "Jc"
      ],
      [
        "Qd",
        "Td"
      ],
      [
        "Qs",
        "Ad"
      ],
      [
        "7c",
        "6c"
      ],
      [
        "Kh",
        "As"
      ],
      [
        "9h",
        "Jd"
      ],
      [
        "Td",
        "Qh"
      ],
      [
        "Ts",
        "Ad"
      ],
      [
        "Kc",
        "7s"
      ],
      [
        "Kh",
        "7d"
      ],
      [
        "Ks",
        "7h"
      ],
      [
        "8c",
        "Ad"
      ],
      [
        "3c",
        "3d"
      ],
      [
        "7d",
        "6d"
      ],
      [
        "8s",
        "8h"
      ],
      [
        "Qc",
        "Th"
      ],
      [
        "7d",
        "9c"
      ],
      [
        "Qh",
        "Jh"
      ],
      [
        "Tc",
        "Kc"
      ],
      [
        "Qc",
        "Jd"
      ],
      [
        "Qd",
        "Ac"
      ],
      [
        "Qh",
        "Ks"
      ],
      [
        "Ad",
        "5d"
      ],
      [
        "6d",
        "6s"
      ],
      [
        "Tc",
        "Ah"
      ],
      [
        "9d",
        "Ks"
      ],
      [
        "9h",
        "Kh"
      ],
      [
        "Ah",
        "Qs"
      ],
      [
        "8h",
        "Qd"
      ],
      [
        "Ts",
        "Kd"
      ],
      [
        "4s",
        "As"
      ],
      [
        "Qc",
        "Td"
      ],
      [
        "4h",
        "4d"
      ],
      [
        "Jd",
        "Ks"
      ],
      [
        "Js",
        "Kc"
      ],
      [
        "5s",
        "As"
      ],
      [
        "6h",
        "Ad"
      ],
      [
        "Js",
        "7s"
      ],
      [
        "Js",
        "As"
      ],
      [
        "Kc",
        "9c"
      ],
      [
        "3d",
        "Ad"
      ],
      [
        "4h",
        "4s"
      ],
      [
        "3s",
        "Kh"
      ],
      [
        "7c",
        "Ad"
      ],
      [
        "Jh",
        "Kd"
      ],
      [
        "Ah",
        "9h"
      ],
      [
        "9d",
        "Qh"
      ],
      [
        "Kc",
        "Qh"
      ],
      [
        "Ks",
        "Jd"
      ],
      [
        "Th",
        "7h"
      ],
      [
        "Jc",
        "Tc"
      ],
      [
        "Qs",
        "Ac"
      ],
      [
        "Kh",
        "Ad"
      ],
      [
        "Jh",
        "Ac"
      ],
      [
        "Qs",
        "3s"
      ],
      [
        "3c",
        "Qc"
      ],
      [
        "6h",
        "6d"
      ],
      [
        "7s",
        "8d"
      ],
      [
        "5h",
        "Ah"
      ],
      [
        "7d",
        "Ad"
      ],
      [
        "8s",
        "Ad"
      ],
      [
        "9d",
        "Td"
      ],
      [
        "4h",
        "Ah"
      ],
      [
        "8s",
        "Ac"
      ],
      [
        "9c",
        "7c"
      ],
      [
        "Jc",
        "Qh"
      ],
      [
        "Js",
        "Qh"
      ],
      [
        "As",
        "4s"
      ],
      [
        "As",
        "5c"
      ],
      [
        "9h",
        "Th"
      ],
      [
        "Ks",
        "Ts"
      ],
      [
        "Ac",
        "Td"
      ],
      [
        "Js",
        "Qc"
      ],
      [
        "Kd",
        "7d"
      ],
      [
        "Kd",
        "9s"
      ],
      [
        "5c",
        "5d"
      ],
      [
        "6c",
        "6d"
      ],
      [
        "Tc",
        "9h"
      ],
      [
        "Jd",
        "Qh"
      ],
      [
        "6s",
        "Ah"
      ],
      [
        "Th",
        "Ad"
      ],
      [
        "As",
        "4c"
      ],
      [
        "5s",
        "Ks"
      ],
      [
        "Tc",
        "Qd"
      ],
      [
        "Jh",
        "Ks"
      ],
      [
        "Jc",
        "Ts"
      ],
      [
        "Qd",
        "Kh"
      ],
      [
        "Kd",
        "9c"
      ],
      [
        "Kd",
        "9h"
      ],
      [
        "7s",
        "Ad"
      ],
      [
        "9s",
        "8d"
      ],
      [
        "9s",
        "9d"
      ],
      [
        "9s",
        "Ah"
      ],
      [
        "Td",
        "Jd"
      ],
      [
        "Ac",
        "3s"
      ],
      [
        "7s",
        "Js"
      ],
      [
        "Jh",
        "Ah"
      ],
      [
        "As",
        "Kh"
      ],
      [
        "8c",
        "Kc"
      ],
      [
        "Ad",
        "Qs"
      ],
      [
        "Ad",
        "Kc"
      ],
      [
        "5s",
        "5d"
      ],
      [
        "6s",
        "8s"
      ],
      [
        "8h",
        "Ts"
      ],
      [
        "Kd",
        "6d"
      ],
      [
        "8d",
        "9d"
      ],
      [
        "Th",
        "Ah"
      ],
      [
        "Qc",
        "Ts"
      ],
      [
        "6s",
        "Ks"
      ],
      [
        "7h",
        "Ks"
      ],
      [
        "8h",
        "Ah"
      ],
      [
        "9h",
        "Tc"
      ],
      [
        "Qc",
        "Ah"
      ],
      [
        "2s",
        "As"
      ],
      [
        "5c",
        "5h"
      ],
      [
        "Td",
        "Qd"
      ],
      [
        "Jh",
        "Qd"
      ],
      [
        "Jc",
        "Qd"
      ],
      [
        "Qh",
        "Jd"
      ],
      [
        "Kd",
        "Qd"
      ],
      [
        "6s",
        "Ts"
      ],
      [
        "Kh",
        "5h"
      ],
      [
        "4c",
        "Ah"
      ],
      [
        "4c",
        "4s"
      ],
      [
        "6c",
        "Ah"
      ],
      [
        "Qs",
        "Ks"
      ],
      [
        "Ac",
        "8c"
      ],
      [
        "7s",
        "Kd"
      ],
      [
        "Jc",
        "Ks"
      ],
      [
        "Kc",
        "4d"
      ],
      [
        "As",
        "9d"
      ],
      [
        "9h",
        "Ts"
      ],
      [
        "Qc",
        "Kd"
      ],
      [
        "Kh",
        "Jh"
      ],
      [
        "7s",
        "7d"
      ],
      [
        "9c",
        "Tc"
      ],
      [
        "Td",
        "As"
      ],
      [
        "4d",
        "6d"
      ],
      [
        "7c",
        "Ah"
      ],
      [
        "8h",
        "Kd"
      ],
      [
        "Qc",
        "7c"
      ],
      [
        "Kc",
        "Tc"
      ],
      [
        "Jd",
        "Th"
      ],
      [
        "Jh",
        "Ad"
      ],
      [
        "8d",
        "Td"
      ],
      [
        "9c",
        "Ac"
      ],
      [
        "9d",
        "Qd"
      ],
      [
        "Jc",
        "8s"
      ],
      [
        "Js",
        "8s"
      ],
      [
        "Js",
        "Kd"
      ],
      [
        "Qh",
        "Ah"
      ],
      [
        "As",
        "5s"
      ],
      [
        "5c",
        "Ad"
      ],
      [
        "5d",
        "Ks"
      ],
      [
        "6h",
        "Ah"
      ],
      [
        "7s",
        "9h"
      ],
      [
        "9s",
        "8s"
      ],
      [
        "Js",
        "Qs"
      ],
      [
        "Kh",
        "Th"
      ],
      [
        "2h",
        "Ks"
      ],
      [
        "5d",
        "Kd"
      ],
      [
        "Tc",
        "Ac"
      ],
      [
        "9c",
        "Jh"
      ],
      [
        "9s",
        "As"
      ],
      [
        "4c",
        "4d"
      ],
      [
        "9s",
        "Jd"
      ],
      [
        "Qd",
        "Kd"
      ],
      [
        "Qd",
        "Ah"
      ],
      [
        "Ac",
        "9c"
      ],
      [
        "8c",
        "7c"
      ],
      [
        "Qs",
        "5s"
      ],
      [
        "7h",
        "Kh"
      ],
      [
        "8d",
        "Jd"
      ],
      [
        "8s",
        "7s"
      ],
      [
        "Jc",
        "Ad"
      ],
      [
        "Ad",
        "Jc"
      ],
      [
        "8c",
        "Tc"
      ],
      [
        "8d",
        "7d"
      ],
      [
        "Qh",
        "Td"
      ],
      [
        "Ks",
        "Tc"
      ],
      [
        "3h",
        "Ah"
      ],
      [
        "4s",
        "Ah"
      ],
      [
        "9c",
        "As"
      ],
      [
        "Js",
        "Tc"
      ],
      [
        "Qs",
        "Kc"
      ],
      [
        "Kc",
        "3c"
      ],
      [
        "4s",
        "Ad"
      ],
      [
        "9h",
        "8d"
      ],
      [
        "Ts",
        "Qc"
      ],
      [
        "Qh",
        "Js"
      ],
      [
        "Kd",
        "8h"
      ],
      [
        "4h",
        "As"
      ],
      [
        "5s",
        "5h"
      ],
      [
        "9s",
        "7s"
      ],
      [
        "Jh",
        "Tc"
      ],
      [
        "5s",
        "5c"
      ],
      [
        "7c",
        "8c"
      ],
      [
        "Td",
        "Kh"
      ],
      [
        "Ts",
        "Jc"
      ],
      [
        "Jd",
        "Ac"
      ],
      [
        "8h",
        "Qs"
      ],
      [
        "9h",
        "Qd"
      ],
      [
        "9h",
        "Ac"
      ],
      [
        "Kc",
        "3h"
      ],
      [
        "Ks",
        "Js"
      ],
      [
        "Ad",
        "Qc"
      ],
      [
        "6c",
        "8c"
      ],
      [
        "Qh",
        "Tc"
      ],
      [
        "Kc",
        "Ah"
      ],
      [
        "9c",
        "7d"
      ],
      [
        "9s",
        "Qc"
      ],
      [
        "Ts",
        "8s"
      ],
      [
        "5h",
        "8c"
      ],
      [
        "Kh",
        "Td"
      ],
      [
        "Kh",
        "Qc"
      ],
      [
        "5h",
        "Ac"
      ],
      [
        "8h",
        "6s"
      ],
      [
        "Th",
        "Qh"
      ],
      [
        "Qd",
        "Js"
      ],
      [
        "8h",
        "7h"
      ],
      [
        "Ad",
        "6s"
      ],
      [
        "Ad",
        "Th"
      ],
      [
        "As",
        "8c"
      ],
      [
        "9d",
        "7d"
      ],
      [
        "4d",
        "Kd"
      ],
      [
        "7h",
        "Ac"
      ],
      [
        "9d",
        "Ac"
      ],
      [
        "Ks",
        "6c"
      ],
      [
        "2s",
        "Qs"
      ],
      [
        "7c",
        "Kd"
      ],
      [
        "7h",
        "7d"
      ],
      [
        "8c",
        "As"
      ],
      [
        "Ts",
        "Jd"
      ],
      [
        "Kc",
        "Js"
      ],
      [
        "6d",
        "5h"
      ],
      [
        "6h",
        "6s"
      ],
      [
        "Jc",
        "Kd"
      ],
      [
        "3h",
        "9h"
      ],
      [
        "3h",
        "Ks"
      ],
      [
        "3s",
        "Qs"
      ],
      [
        "7h",
        "Jh"
      ],
      [
        "9s",
        "8c"
      ],
      [
        "Jh",
        "5h"
      ],
      [
        "Ad",
        "Qh"
      ],
      [
        "8s",
        "6s"
      ],
      [
        "Td",
        "9h"
      ],
      [
        "Th",
        "Qc"
      ],
      [
        "Th",
        "Kc"
      ],
      [
        "Qd",
        "Tc"
      ],
      [
        "4d",
        "8d"
      ],
      [
        "7s",
        "9c"
      ],
      [
        "Jc",
        "Kc"
      ],
      [
        "Kd",
        "3d"
      ],
      [
        "Kh",
        "6s"
      ],
      [
        "2s",
        "2d"
      ],
      [
        "5c",
        "5s"
      ],
      [
        "9s",
        "Qh"
      ],
      [
        "Jc",
        "6h"
      ],
      [
        "Qs",
        "Jh"
      ],
      [
        "5c",
        "4c"
      ],
      [
        "5d",
        "9d"
      ],
      [
        "7s",
        "3s"
      ],
      [
        "9d",
        "5d"
      ],
      [
        "Qc",
        "Js"
      ],
      [
        "Qd",
        "Ks"
      ],
      [
        "Ah",
        "Tc"
      ],
      [
        "8s",
        "Jd"
      ],
      [
        "Qh",
        "4h"
      ],
      [
        "Kc",
        "Th"
      ],
      [
        "Kh",
        "Qs"
      ],
      [
        "3d",
        "Jd"
      ],
      [
        "7c",
        "As"
      ],
      [
        "7d",
        "Td"
      ],
      [
        "Jc",
        "Qs"
      ],
      [
        "Kc",
        "Jd"
      ],
      [
        "4c",
        "Ts"
      ],
      [
        "4c",
        "Ad"
      ],
      [
        "7c",
        "Qs"
      ],
      [
        "8s",
        "8c"
      ],
      [
        "Qc",
        "9s"
      ],
      [
        "Kc",
        "Ac"
      ],
      [
        "Ks",
        "Td"
      ],
      [
        "5c",
        "2c"
      ],
      [
        "8s",
        "As"
      ],
      [
        "Ks",
        "9d"
      ],
      [
        "7c",
        "Ac"
      ],
      [
        "Qd",
        "5d"
      ],
      [
        "7",
        "15"
      ],
      [
        "6h",
        "8h"
      ],
      [
        "Jh",
        "9h"
      ],
      [
        "Ts",
        "9c"
      ],
      [
        "Qh",
        "Kd"
      ],
      [
        "Kh",
        "8c"
      ],
      [
        "Ad",
        "6d"
      ],
      [
        "Jd",
        "8c"
      ],
      [
        "As",
        "6d"
      ],
      [
        "7",
        "25"
      ],
      [
        "4d",
        "Ac"
      ],
      [
        "5s",
        "Qs"
      ],
      [
        "6c",
        "Tc"
      ],
      [
        "7h",
        "6h"
      ],
      [
        "Jc",
        "9d"
      ],
      [
        "Jc",
        "Qc"
      ],
      [
        "As",
        "7s"
      ],
      [
        "3s",
        "Jd"
      ],
      [
        "4c",
        "4h"
      ],
      [
        "5s",
        "Qd"
      ],
      [
        "6c",
        "Ts"
      ],
      [
        "8d",
        "Qd"
      ],
      [
        "Jh",
        "8c"
      ],
      [
        "Js",
        "Ah"
      ],
      [
        "Qh",
        "2d"
      ],
      [
        "6h",
        "7h"
      ],
      [
        "8s",
        "Ts"
      ],
      [
        "Td",
        "Ah"
      ],
      [
        "2c",
        "Ac"
      ],
      [
        "4c",
        "Tc"
      ],
      [
        "4d",
        "7d"
      ],
      [
        "6c",
        "Qs"
      ],
      [
        "9c",
        "Qs"
      ],
      [
        "Th",
        "3h"
      ],
      [
        "7s",
        "Ks"
      ],
      [
        "8h",
        "Td"
      ],
      [
        "9h",
        "Ks"
      ],
      [
        "9s",
        "Qd"
      ],
      [
        "Jd",
        "Ah"
      ],
      [
        "Kc",
        "7c"
      ],
      [
        "6c",
        "6s"
      ],
      [
        "7d",
        "Ah"
      ],
      [
        "Jc",
        "Ah"
      ],
      [
        "Js",
        "Ac"
      ],
      [
        "Qc",
        "7d"
      ],
      [
        "2c",
        "Ad"
      ],
      [
        "7s",
        "As"
      ],
      [
        "8h",
        "Kh"
      ],
      [
        "9c",
        "Ts"
      ],
      [
        "Th",
        "Kd"
      ],
      [
        "5c",
        "Ac"
      ],
      [
        "Th",
        "6h"
      ],
      [
        "Jc",
        "9h"
      ],
      [
        "Qc",
        "8c"
      ],
      [
        "Kd",
        "8d"
      ],
      [
        "Kh",
        "Js"
      ],
      [
        "4c",
        "5h"
      ],
      [
        "8h",
        "Jh"
      ],
      [
        "9s",
        "5h"
      ],
      [
        "Th",
        "9h"
      ],
      [
        "3c",
        "3s"
      ],
      [
        "6s",
        "Ad"
      ],
      [
        "9d",
        "Kh"
      ],
      [
        "9d",
        "Ah"
      ],
      [
        "Th",
        "Qd"
      ],
      [
        "Kc",
        "8c"
      ],
      [
        "Kd",
        "5d"
      ],
      [
        "As",
        "3h"
      ],
      [
        "4s",
        "Ks"
      ],
      [
        "Td",
        "Qs"
      ],
      [
        "Jc",
        "8c"
      ],
      [
        "Ad",
        "Qd"
      ],
      [
        "As",
        "7d"
      ],
      [
        "As",
        "9c"
      ],
      [
        "2s",
        "7s"
      ],
      [
        "5c",
        "Ah"
      ],
      [
        "6c",
        "4c"
      ],
      [
        "6d",
        "Qh"
      ],
      [
        "7h",
        "4h"
      ],
      [
        "9s",
        "Ks"
      ],
      [
        "Jh",
        "3h"
      ],
      [
        "2c",
        "Qs"
      ],
      [
        "8h",
        "9h"
      ],
      [
        "Jc",
        "3c"
      ],
      [
        "Kd",
        "2d"
      ],
      [
        "Ac",
        "Js"
      ],
      [
        "5h",
        "5c"
      ],
      [
        "Qh",
        "Ts"
      ],
      [
        "2s",
        "2h"
      ],
      [
        "6s",
        "Qs"
      ],
      [
        "7h",
        "9h"
      ],
      [
        "8d",
        "Ks"
      ],
      [
        "Qh",
        "9h"
      ],
      [
        "3s",
        "Ks"
      ],
      [
        "5d",
        "6d"
      ],
      [
        "7h",
        "3h"
      ],
      [
        "Ad",
        "Td"
      ],
      [
        "Ad",
        "Jh"
      ],
      [
        "5h",
        "9h"
      ],
      [
        "8d",
        "Kd"
      ],
      [
        "9d",
        "Kc"
      ],
      [
        "Tc",
        "Kh"
      ],
      [
        "Ts",
        "8d"
      ],
      [
        "Jd",
        "Qs"
      ],
      [
        "3c",
        "9c"
      ],
      [
        "3d",
        "7d"
      ],
      [
        "4h",
        "3h"
      ],
      [
        "5d",
        "Qd"
      ],
      [
        "9s",
        "Js"
      ],
      [
        "7",
        "30"
      ],
      [
        "2c",
        "7c"
      ],
      [
        "7s",
        "7c"
      ],
      [
        "9d",
        "8c"
      ],
      [
        "5h",
        "Kd"
      ],
      [
        "6s",
        "6d"
      ],
      [
        "Jd",
        "9d"
      ],
      [
        "Js",
        "Ks"
      ],
      [
        "Ac",
        "Jd"
      ],
      [
        "As",
        "Ks"
      ],
      [
        "5c",
        "4s"
      ],
      [
        "Jc",
        "Td"
      ],
      [
        "3d",
        "Ah"
      ],
      [
        "8h",
        "Qc"
      ],
      [
        "Th",
        "Qs"
      ],
      [
        "3c",
        "5h"
      ],
      [
        "6h",
        "Kh"
      ],
      [
        "8h",
        "Kc"
      ],
      [
        "9s",
        "Ac"
      ],
      [
        "Th",
        "9c"
      ],
      [
        "2h",
        "2c"
      ],
      [
        "5s",
        "4s"
      ],
      [
        "8c",
        "Jh"
      ],
      [
        "Qh",
        "9c"
      ],
      [
        "Ad",
        "Ts"
      ],
      [
        "Ad",
        "Ks"
      ],
      [
        "As",
        "2s"
      ],
      [
        "7d",
        "Ac"
      ],
      [
        "Kd",
        "4d"
      ],
      [
        "Kh",
        "6c"
      ],
      [
        "Kh",
        "Jd"
      ],
      [
        "Ah",
        "7s"
      ],
      [
        "3d",
        "Ac"
      ],
      [
        "5d",
        "4d"
      ],
      [
        "7h",
        "9c"
      ],
      [
        "8d",
        "Jh"
      ],
      [
        "Jc",
        "8d"
      ],
      [
        "Kd",
        "Qs"
      ],
      [
        "Ad",
        "7s"
      ],
      [
        "Ad",
        "9h"
      ],
      [
        "3s",
        "3c"
      ],
      [
        "7d",
        "Qc"
      ],
      [
        "Ah",
        "6h"
      ],
      [
        "4c",
        "Kc"
      ],
      [
        "4h",
        "Qh"
      ],
      [
        "5s",
        "8s"
      ],
      [
        "6s",
        "As"
      ],
      [
        "Td",
        "Jh"
      ],
      [
        "Td",
        "Js"
      ],
      [
        "Ts",
        "4s"
      ],
      [
        "Ah",
        "3h"
      ],
      [
        "6c",
        "7s"
      ],
      [
        "8h",
        "Ac"
      ],
      [
        "As",
        "2h"
      ],
      [
        "4c",
        "7c"
      ],
      [
        "4h",
        "9h"
      ],
      [
        "7h",
        "7s"
      ],
      [
        "Th",
        "2h"
      ],
      [
        "Kc",
        "9d"
      ],
      [
        "2c",
        "9c"
      ],
      [
        "5s",
        "Ah"
      ],
      [
        "Tc",
        "6c"
      ],
      [
        "Ts",
        "Qd"
      ],
      [
        "8c",
        "9c"
      ],
      [
        "8s",
        "Jh"
      ],
      [
        "Tc",
        "9c"
      ],
      [
        "Jd",
        "5d"
      ],
      [
        "Qd",
        "Ts"
      ],
      [
        "Jd",
        "8d"
      ],
      [
        "Qc",
        "9c"
      ],
      [
        "Kc",
        "4c"
      ],
      [
        "2c",
        "4c"
      ],
      [
        "3s",
        "Ac"
      ],
      [
        "6c",
        "7c"
      ],
      [
        "6d",
        "7d"
      ],
      [
        "6h",
        "5h"
      ],
      [
        "8c",
        "Js"
      ],
      [
        "8s",
        "Kh"
      ],
      [
        "9s",
        "4s"
      ],
      [
        "Tc",
        "6s"
      ],
      [
        "Qh",
        "As"
      ],
      [
        "3c",
        "Kc"
      ],
      [
        "3s",
        "As"
      ],
      [
        "6d",
        "4d"
      ],
      [
        "Tc",
        "As"
      ],
      [
        "Th",
        "8h"
      ],
      [
        "Qc",
        "5c"
      ],
      [
        "Ad",
        "5h"
      ],
      [
        "3c",
        "Jc"
      ],
      [
        "3s",
        "4s"
      ],
      [
        "9h",
        "4h"
      ],
      [
        "Th",
        "Jc"
      ],
      [
        "2h",
        "Qh"
      ],
      [
        "Ts",
        "Kh"
      ],
      [
        "Td",
        "4d"
      ],
      [
        "Td",
        "8c"
      ],
      [
        "Th",
        "8s"
      ],
      [
        "Jd",
        "2d"
      ],
      [
        "Jh",
        "8d"
      ],
      [
        "Qh",
        "7s"
      ],
      [
        "Kd",
        "8c"
      ],
      [
        "2c",
        "Kc"
      ],
      [
        "2h",
        "2d"
      ],
      [
        "5s",
        "6s"
      ],
      [
        "Tc",
        "Jc"
      ],
      [
        "Ts",
        "9h"
      ],
      [
        "9d",
        "Jh"
      ],
      [
        "5s",
        "6h"
      ],
      [
        "Jd",
        "4d"
      ],
      [
        "Jd",
        "As"
      ],
      [
        "Ks",
        "7s"
      ],
      [
        "4h",
        "9s"
      ],
      [
        "5h",
        "6h"
      ],
      [
        "7h",
        "8d"
      ],
      [
        "8h",
        "As"
      ],
      [
        "8s",
        "Jc"
      ],
      [
        "Qc",
        "2d"
      ],
      [
        "Kh",
        "3h"
      ],
      [
        "7d",
        "6c"
      ],
      [
        "Ts",
        "7s"
      ],
      [
        "Ah",
        "9d"
      ],
      [
        "7d",
        "9s"
      ],
      [
        "Js",
        "4s"
      ],
      [
        "Qc",
        "8h"
      ],
      [
        "Ac",
        "2d"
      ],
      [
        "Ad",
        "9c"
      ],
      [
        "3h",
        "Kh"
      ],
      [
        "Th",
        "8c"
      ],
      [
        "Qd",
        "8s"
      ],
      [
        "Kd",
        "As"
      ],
      [
        "Ac",
        "6s"
      ],
      [
        "2h",
        "2s"
      ],
      [
        "3c",
        "As"
      ],
      [
        "4h",
        "4c"
      ],
      [
        "5h",
        "6d"
      ],
      [
        "Tc",
        "Ks"
      ],
      [
        "Th",
        "4c"
      ],
      [
        "Th",
        "As"
      ],
      [
        "Jh",
        "6s"
      ],
      [
        "Jh",
        "9d"
      ],
      [
        "Kd",
        "7s"
      ],
      [
        "2h",
        "5s"
      ],
      [
        "3c",
        "2c"
      ],
      [
        "5d",
        "Kh"
      ],
      [
        "Td",
        "3d"
      ],
      [
        "Jh",
        "8s"
      ],
      [
        "5h",
        "Ks"
      ],
      [
        "7c",
        "4d"
      ],
      [
        "Tc",
        "Qc"
      ],
      [
        "Td",
        "8h"
      ],
      [
        "Ts",
        "Kc"
      ],
      [
        "Jc",
        "6c"
      ],
      [
        "Js",
        "9h"
      ],
      [
        "4s",
        "7s"
      ],
      [
        "5d",
        "4c"
      ],
      [
        "5h",
        "4s"
      ],
      [
        "6d",
        "9h"
      ],
      [
        "7c",
        "Qh"
      ],
      [
        "8c",
        "9d"
      ],
      [
        "Td",
        "9d"
      ],
      [
        "Js",
        "Ad"
      ],
      [
        "Qs",
        "Jd"
      ],
      [
        "4h",
        "8h"
      ],
      [
        "5d",
        "7d"
      ],
      [
        "7h",
        "8s"
      ],
      [
        "8c",
        "6c"
      ],
      [
        "8d",
        "6d"
      ],
      [
        "Tc",
        "7h"
      ],
      [
        "Ad",
        "2s"
      ],
      [
        "Tc",
        "Qh"
      ],
      [
        "Td",
        "2c"
      ],
      [
        "Qs",
        "2d"
      ],
      [
        "Kd",
        "Ts"
      ],
      [
        "Ah",
        "7c"
      ],
      [
        "Ah",
        "8h"
      ],
      [
        "3s",
        "3d"
      ],
      [
        "Ts",
        "Jh"
      ],
      [
        "Ks",
        "As"
      ],
      [
        "5s",
        "2s"
      ],
      [
        "7d",
        "5d"
      ],
      [
        "Ah",
        "5s"
      ],
      [
        "5c",
        "3c"
      ],
      [
        "6c",
        "As"
      ],
      [
        "6s",
        "Qc"
      ],
      [
        "8c",
        "Qc"
      ],
      [
        "8d",
        "4d"
      ],
      [
        "9s",
        "2s"
      ],
      [
        "Ah",
        "Td"
      ],
      [
        "5h",
        "Qd"
      ],
      [
        "7d",
        "Qd"
      ],
      [
        "9s",
        "Ts"
      ],
      [
        "Jc",
        "7c"
      ],
      [
        "Qh",
        "Ac"
      ],
      [
        "Ah",
        "Qd"
      ],
      [
        "4h",
        "Kh"
      ],
      [
        "6d",
        "Qd"
      ],
      [
        "7d",
        "As"
      ],
      [
        "Kc",
        "2d"
      ],
      [
        "Kd",
        "3c"
      ],
      [
        "Ah",
        "5d"
      ],
      [
        "2h",
        "Qs"
      ],
      [
        "2h",
        "Ad"
      ],
      [
        "3d",
        "3s"
      ],
      [
        "4c",
        "9c"
      ],
      [
        "8d",
        "Ac"
      ],
      [
        "Jh",
        "6d"
      ],
      [
        "Js",
        "9d"
      ],
      [
        "Qh",
        "Th"
      ],
      [
        "3c",
        "5c"
      ],
      [
        "5h",
        "5d"
      ],
      [
        "9s",
        "Kh"
      ],
      [
        "Tc",
        "8c"
      ],
      [
        "Tc",
        "8h"
      ],
      [
        "Ts",
        "6s"
      ],
      [
        "Kd",
        "6h"
      ],
      [
        "Kd",
        "Td"
      ],
      [
        "2c",
        "2d"
      ],
      [
        "9h",
        "Ad"
      ],
      [
        "Qs",
        "9c"
      ],
      [
        "3s",
        "5s"
      ],
      [
        "4d",
        "5c"
      ],
      [
        "4h",
        "Jc"
      ],
      [
        "8s",
        "Td"
      ],
      [
        "3d",
        "Kc"
      ],
      [
        "Js",
        "5s"
      ],
      [
        "Qh",
        "5c"
      ],
      [
        "Qh",
        "8h"
      ],
      [
        "Kc",
        "6s"
      ],
      [
        "2d",
        "Ad"
      ],
      [
        "2h",
        "Kh"
      ],
      [
        "7c",
        "4c"
      ],
      [
        "8d",
        "5d"
      ],
      [
        "Tc",
        "9s"
      ],
      [
        "Jd",
        "6h"
      ],
      [
        "Qd",
        "6d"
      ],
      [
        "Ah",
        "6d"
      ],
      [
        "4h",
        "5h"
      ],
      [
        "9h",
        "As"
      ],
      [
        "Qs",
        "7s"
      ],
      [
        "Kd",
        "9d"
      ],
      [
        "Ks",
        "9c"
      ],
      [
        "4d",
        "6h"
      ],
      [
        "Jh",
        "7h"
      ],
      [
        "Js",
        "3s"
      ],
      [
        "Qs",
        "9d"
      ],
      [
        "Kc",
        "Td"
      ],
      [
        "Ah",
        "Qc"
      ],
      [
        "2c",
        "As"
      ],
      [
        "5c",
        "8h"
      ],
      [
        "5h",
        "7h"
      ],
      [
        "Th",
        "Jd"
      ],
      [
        "Ts",
        "7h"
      ],
      [
        "Ks",
        "2s"
      ],
      [
        "Ks",
        "Jc"
      ],
      [
        "3d",
        "6d"
      ],
      [
        "5s",
        "3s"
      ],
      [
        "8c",
        "Kh"
      ],
      [
        "Kc",
        "8d"
      ],
      [
        "Kc",
        "8h"
      ],
      [
        "3c",
        "Jd"
      ],
      [
        "4c",
        "Ac"
      ],
      [
        "4h",
        "Qd"
      ],
      [
        "5d",
        "Qc"
      ],
      [
        "5s",
        "Ad"
      ],
      [
        "6c",
        "Jc"
      ],
      [
        "7c",
        "9s"
      ],
      [
        "9h",
        "5h"
      ],
      [
        "Qh",
        "3c"
      ],
      [
        "Kh",
        "6h"
      ],
      [
        "Kh",
        "7s"
      ],
      [
        "Ks",
        "Qd"
      ],
      [
        "Ac",
        "5d"
      ],
      [
        "4d",
        "Qd"
      ],
      [
        "9h",
        "7s"
      ],
      [
        "Jh",
        "9s"
      ],
      [
        "Js",
        "9s"
      ],
      [
        "Qh",
        "3h"
      ],
      [
        "2c",
        "2s"
      ],
      [
        "3d",
        "3c"
      ],
      [
        "Jh",
        "7d"
      ],
      [
        "Kd",
        "2h"
      ],
      [
        "Ah",
        "6c"
      ],
      [
        "2c",
        "Qc"
      ],
      [
        "4d",
        "Qs"
      ],
      [
        "8c",
        "7s"
      ],
      [
        "Td",
        "3s"
      ],
      [
        "Th",
        "4h"
      ],
      [
        "7c",
        "Js"
      ],
      [
        "7d",
        "8d"
      ],
      [
        "9h",
        "7h"
      ],
      [
        "Qh",
        "Jc"
      ],
      [
        "Kc",
        "6d"
      ],
      [
        "Ah",
        "2d"
      ],
      [
        "Ah",
        "4c"
      ],
      [
        "6h",
        "2h"
      ],
      [
        "8s",
        "9d"
      ],
      [
        "Qc",
        "4h"
      ],
      [
        "Kd",
        "5s"
      ],
      [
        "Ad",
        "3h"
      ],
      [
        "3c",
        "Ac"
      ],
      [
        "6h",
        "4s"
      ],
      [
        "6h",
        "9s"
      ],
      [
        "9h",
        "Jc"
      ],
      [
        "Jh",
        "Ts"
      ],
      [
        "Qh",
        "6d"
      ],
      [
        "Qs",
        "8h"
      ],
      [
        "Kh",
        "8h"
      ],
      [
        "Ah",
        "6s"
      ],
      [
        "5d",
        "5h"
      ],
      [
        "6c",
        "4s"
      ],
      [
        "8s",
        "Qd"
      ],
      [
        "Qh",
        "Kc"
      ],
      [
        "7c",
        "9c"
      ],
      [
        "7d",
        "Ts"
      ],
      [
        "9d",
        "8s"
      ],
      [
        "Td",
        "6d"
      ],
      [
        "Td",
        "9c"
      ],
      [
        "Ad",
        "5s"
      ],
      [
        "2s",
        "Ac"
      ],
      [
        "4d",
        "4h"
      ],
      [
        "5c",
        "3s"
      ],
      [
        "7c",
        "Qc"
      ],
      [
        "Tc",
        "Qs"
      ],
      [
        "Ah",
        "Ts"
      ],
      [
        "2d",
        "Jd"
      ],
      [
        "5c",
        "Jc"
      ],
      [
        "8c",
        "Qd"
      ],
      [
        "Ah",
        "Kh"
      ],
      [
        "6h",
        "Qd"
      ],
      [
        "Tc",
        "4c"
      ],
      [
        "2d",
        "9d"
      ],
      [
        "2d",
        "Kh"
      ],
      [
        "6c",
        "Kh"
      ],
      [
        "8c",
        "5d"
      ],
      [
        "8d",
        "Kc"
      ],
      [
        "9s",
        "7h"
      ],
      [
        "Jd",
        "6d"
      ],
      [
        "Ks",
        "3c"
      ],
      [
        "5h",
        "8h"
      ],
      [
        "Qh",
        "4s"
      ],
      [
        "4d",
        "Ad"
      ],
      [
        "9h",
        "7d"
      ],
      [
        "9h",
        "Qc"
      ],
      [
        "Jd",
        "2s"
      ],
      [
        "6s",
        "Kh"
      ],
      [
        "6s",
        "Ac"
      ],
      [
        "8s",
        "9c"
      ],
      [
        "Td",
        "7d"
      ],
      [
        "4d",
        "6c"
      ],
      [
        "5c",
        "Kh"
      ],
      [
        "9s",
        "7c"
      ],
      [
        "Kc",
        "Ts"
      ],
      [
        "Kd",
        "Tc"
      ],
      [
        "4s",
        "5s"
      ],
      [
        "9d",
        "6d"
      ],
      [
        "9h",
        "Qh"
      ],
      [
        "As",
        "Jh"
      ],
      [
        "As",
        "Qc"
      ],
      [
        "2d",
        "2s"
      ],
      [
        "4s",
        "6s"
      ],
      [
        "5c",
        "Qs"
      ],
      [
        "5c",
        "Ks"
      ],
      [
        "8d",
        "5s"
      ],
      [
        "9c",
        "Jc"
      ],
      [
        "Jd",
        "Tc"
      ],
      [
        "2c",
        "Tc"
      ],
      [
        "6c",
        "3s"
      ],
      [
        "9d",
        "Jc"
      ],
      [
        "9s",
        "Jh"
      ],
      [
        "5d",
        "Ac"
      ],
      [
        "6d",
        "Qs"
      ],
      [
        "6h",
        "Th"
      ],
      [
        "7d",
        "4d"
      ],
      [
        "Jd",
        "9c"
      ],
      [
        "Kc",
        "5s"
      ],
      [
        "2s",
        "Ks"
      ],
      [
        "4s",
        "3c"
      ],
      [
        "4s",
        "Ts"
      ],
      [
        "7c",
        "5s"
      ],
      [
        "8d",
        "Qs"
      ],
      [
        "8s",
        "Th"
      ],
      [
        "9d",
        "Qs"
      ],
      [
        "Ah",
        "2h"
      ],
      [
        "2c",
        "5h"
      ],
      [
        "3s",
        "Qd"
      ],
      [
        "4s",
        "4c"
      ],
      [
        "6c",
        "Qd"
      ],
      [
        "7h",
        "Th"
      ],
      [
        "Jd",
        "Kh"
      ],
      [
        "Ac",
        "Th"
      ],
      [
        "Ad",
        "Tc"
      ],
      [
        "2c",
        "3h"
      ],
      [
        "2d",
        "3h"
      ],
      [
        "4h",
        "Th"
      ],
      [
        "5c",
        "9c"
      ],
      [
        "6s",
        "Qd"
      ],
      [
        "Ts",
        "2s"
      ],
      [
        "Jd",
        "Qc"
      ],
      [
        "Qh",
        "5d"
      ],
      [
        "Qh",
        "6h"
      ],
      [
        "Kc",
        "9h"
      ],
      [
        "2d",
        "As"
      ],
      [
        "7d",
        "8h"
      ],
      [
        "9s",
        "6s"
      ],
      [
        "Qh",
        "4d"
      ],
      [
        "Kc",
        "Qd"
      ],
      [
        "Ks",
        "Th"
      ],
      [
        "Ac",
        "8d"
      ],
      [
        "Ah",
        "3d"
      ],
      [
        "2h",
        "Js"
      ],
      [
        "3h",
        "3c"
      ],
      [
        "5c",
        "3d"
      ],
      [
        "5c",
        "4h"
      ],
      [
        "6d",
        "2s"
      ],
      [
        "9d",
        "Js"
      ],
      [
        "Kd",
        "Qc"
      ],
      [
        "5c",
        "Js"
      ],
      [
        "7h",
        "5h"
      ],
      [
        "9c",
        "7s"
      ],
      [
        "Kh",
        "5s"
      ],
      [
        "Ac",
        "6c"
      ],
      [
        "2d",
        "3d"
      ],
      [
        "9d",
        "6c"
      ],
      [
        "Jc",
        "5s"
      ],
      [
        "Qh",
        "8c"
      ],
      [
        "2c",
        "Ah"
      ],
      [
        "4h",
        "5s"
      ],
      [
        "5c",
        "8s"
      ],
      [
        "6d",
        "Qc"
      ],
      [
        "6s",
        "8h"
      ],
      [
        "9s",
        "Ad"
      ],
      [
        "Jh",
        "4d"
      ],
      [
        "Ac",
        "3h"
      ],
      [
        "3s",
        "3h"
      ],
      [
        "7h",
        "Td"
      ],
      [
        "9s",
        "8h"
      ],
      [
        "2c",
        "7d"
      ],
      [
        "6h",
        "Td"
      ],
      [
        "7c",
        "Tc"
      ],
      [
        "7c",
        "Jh"
      ],
      [
        "8d",
        "As"
      ],
      [
        "9d",
        "8h"
      ],
      [
        "Kc",
        "8s"
      ],
      [
        "5h",
        "Ad"
      ],
      [
        "5s",
        "Kh"
      ],
      [
        "7h",
        "Qs"
      ],
      [
        "9h",
        "8h"
      ],
      [
        "9h",
        "Js"
      ],
      [
        "9s",
        "5d"
      ],
      [
        "Jd",
        "7d"
      ],
      [
        "2c",
        "Qd"
      ],
      [
        "4d",
        "As"
      ],
      [
        "6c",
        "Ac"
      ],
      [
        "7s",
        "Ts"
      ],
      [
        "8s",
        "7d"
      ],
      [
        "Jd",
        "Kc"
      ],
      [
        "4c",
        "Js"
      ],
      [
        "7h",
        "6d"
      ],
      [
        "9s",
        "Th"
      ],
      [
        "3c",
        "3h"
      ],
      [
        "6d",
        "3h"
      ],
      [
        "6h",
        "9c"
      ],
      [
        "7s",
        "Qs"
      ],
      [
        "9d",
        "7c"
      ],
      [
        "9s",
        "Td"
      ],
      [
        "Ks",
        "5s"
      ],
      [
        "Ks",
        "6s"
      ],
      [
        "Ac",
        "Tc"
      ],
      [
        "Ad",
        "7d"
      ],
      [
        "4c",
        "Kh"
      ],
      [
        "6h",
        "Qh"
      ],
      [
        "8c",
        "Th"
      ],
      [
        "Jc",
        "Th"
      ],
      [
        "Qd",
        "9c"
      ],
      [
        "Ad",
        "8h"
      ],
      [
        "4c",
        "As"
      ],
      [
        "4s",
        "Ac"
      ],
      [
        "6d",
        "Td"
      ],
      [
        "7h",
        "3d"
      ],
      [
        "8d",
        "6s"
      ],
      [
        "Qd",
        "Jh"
      ],
      [
        "Kc",
        "Jh"
      ],
      [
        "2h",
        "5d"
      ],
      [
        "3s",
        "Js"
      ],
      [
        "4d",
        "5h"
      ],
      [
        "8d",
        "Ah"
      ],
      [
        "Jd",
        "6c"
      ],
      [
        "Jd",
        "7s"
      ],
      [
        "4d",
        "Tc"
      ],
      [
        "7c",
        "8h"
      ],
      [
        "7c",
        "Kh"
      ],
      [
        "8s",
        "9h"
      ],
      [
        "9s",
        "4h"
      ],
      [
        "3d",
        "Kd"
      ],
      [
        "5d",
        "8h"
      ],
      [
        "6c",
        "5h"
      ],
      [
        "6h",
        "Ac"
      ],
      [
        "8d",
        "5h"
      ],
      [
        "9d",
        "Qc"
      ],
      [
        "Ah",
        "Kd"
      ],
      [
        "4c",
        "Qs"
      ],
      [
        "7h",
        "Js"
      ],
      [
        "8c",
        "Qh"
      ],
      [
        "Jc",
        "5c"
      ],
      [
        "Jc",
        "As"
      ],
      [
        "Ks",
        "Jh"
      ],
      [
        "2c",
        "5c"
      ],
      [
        "2d",
        "Qd"
      ],
      [
        "4s",
        "Qs"
      ],
      [
        "4s",
        "Kh"
      ],
      [
        "6d",
        "As"
      ],
      [
        "6h",
        "7s"
      ],
      [
        "7h",
        "5d"
      ],
      [
        "8s",
        "3s"
      ],
      [
        "5h",
        "6c"
      ],
      [
        "8d",
        "Ts"
      ],
      [
        "Ks",
        "3d"
      ],
      [
        "2c",
        "5d"
      ],
      [
        "4s",
        "3s"
      ],
      [
        "6d",
        "7s"
      ],
      [
        "6h",
        "5s"
      ],
      [
        "8s",
        "2s"
      ],
      [
        "Qc",
        "Jh"
      ],
      [
        "Kc",
        "3d"
      ],
      [
        "4s",
        "2c"
      ],
      [
        "4s",
        "4h"
      ],
      [
        "5h",
        "Kh"
      ],
      [
        "8s",
        "Kd"
      ],
      [
        "Qc",
        "Ad"
      ],
      [
        "Ac",
        "Kd"
      ],
      [
        "Ah",
        "9c"
      ],
      [
        "4d",
        "8c"
      ],
      [
        "8s",
        "Qs"
      ],
      [
        "9d",
        "2d"
      ],
      [
        "9h",
        "Td"
      ],
      [
        "Tc",
        "Jh"
      ],
      [
        "Th",
        "6s"
      ],
      [
        "Jd",
        "Ts"
      ],
      [
        "Qh",
        "2c"
      ],
      [
        "Ks",
        "8h"
      ],
      [
        "3c",
        "8c"
      ],
      [
        "3d",
        "2d"
      ],
      [
        "4d",
        "4c"
      ],
      [
        "7d",
        "4c"
      ],
      [
        "8d",
        "4h"
      ],
      [
        "Qc",
        "5d"
      ],
      [
        "Kc",
        "6c"
      ],
      [
        "4d",
        "Qh"
      ],
      [
        "4s",
        "2s"
      ],
      [
        "7c",
        "6s"
      ],
      [
        "7d",
        "Jc"
      ],
      [
        "7h",
        "Ah"
      ],
      [
        "7s",
        "8h"
      ],
      [
        "4d",
        "Jd"
      ],
      [
        "5d",
        "Js"
      ],
      [
        "5h",
        "As"
      ],
      [
        "6h",
        "3h"
      ],
      [
        "7c",
        "Qd"
      ],
      [
        "8s",
        "Ah"
      ],
      [
        "Qc",
        "3d"
      ],
      [
        "5c",
        "8c"
      ],
      [
        "7d",
        "Kh"
      ],
      [
        "Jd",
        "Td"
      ],
      [
        "Qc",
        "Jc"
      ],
      [
        "Ks",
        "3h"
      ],
      [
        "Ks",
        "9s"
      ],
      [
        "Ad",
        "8c"
      ],
      [
        "100",
        "00"
      ],
      [
        "2h",
        "6h"
      ],
      [
        "4d",
        "3c"
      ],
      [
        "5c",
        "Tc"
      ],
      [
        "9h",
        "Kd"
      ],
      [
        "Ks",
        "Qh"
      ],
      [
        "5d",
        "As"
      ],
      [
        "7d",
        "Js"
      ],
      [
        "7h",
        "8c"
      ],
      [
        "8d",
        "9c"
      ],
      [
        "8d",
        "Jc"
      ],
      [
        "Qs",
        "Js"
      ],
      [
        "Ac",
        "4c"
      ],
      [
        "6d",
        "Kd"
      ],
      [
        "7h",
        "3c"
      ],
      [
        "Ad",
        "9d"
      ],
      [
        "4s",
        "9s"
      ],
      [
        "7d",
        "3d"
      ],
      [
        "7h",
        "Tc"
      ],
      [
        "Th",
        "Js"
      ],
      [
        "Qh",
        "3s"
      ],
      [
        "Ac",
        "3c"
      ],
      [
        "Ks",
        "5c"
      ],
      [
        "4s",
        "6h"
      ],
      [
        "6c",
        "3c"
      ],
      [
        "8s",
        "5c"
      ],
      [
        "8s",
        "Tc"
      ],
      [
        "Qd",
        "Jc"
      ],
      [
        "Qs",
        "Ts"
      ],
      [
        "7c",
        "5h"
      ],
      [
        "8c",
        "Kd"
      ],
      [
        "8d",
        "7s"
      ],
      [
        "Td",
        "7s"
      ],
      [
        "Qc",
        "3c"
      ],
      [
        "Ks",
        "3s"
      ],
      [
        "2c",
        "Jc"
      ],
      [
        "2s",
        "3h"
      ],
      [
        "5d",
        "Ah"
      ],
      [
        "Jh",
        "Kc"
      ],
      [
        "Ks",
        "2d"
      ],
      [
        "Ad",
        "7c"
      ],
      [
        "As",
        "Jc"
      ],
      [
        "6d",
        "5s"
      ],
      [
        "6s",
        "9d"
      ],
      [
        "Ts",
        "7d"
      ],
      [
        "Qc",
        "3h"
      ],
      [
        "3d",
        "6c"
      ],
      [
        "4h",
        "7s"
      ],
      [
        "4s",
        "2h"
      ],
      [
        "6d",
        "Kc"
      ],
      [
        "7h",
        "9d"
      ],
      [
        "8s",
        "5s"
      ],
      [
        "Jh",
        "6h"
      ],
      [
        "2d",
        "2h"
      ],
      [
        "2d",
        "Ac"
      ],
      [
        "7h",
        "4c"
      ],
      [
        "8h",
        "6c"
      ],
      [
        "Tc",
        "Kd"
      ],
      [
        "Td",
        "Jc"
      ],
      [
        "Js",
        "Kh"
      ],
      [
        "5s",
        "Qh"
      ],
      [
        "6s",
        "7s"
      ],
      [
        "Th",
        "7d"
      ],
      [
        "Kh",
        "3s"
      ],
      [
        "Ac",
        "8h"
      ],
      [
        "Ah",
        "5c"
      ],
      [
        "6s",
        "4c"
      ],
      [
        "8s",
        "5d"
      ],
      [
        "Th",
        "5d"
      ],
      [
        "Ac",
        "2c"
      ],
      [
        "Ad",
        "5c"
      ],
      [
        "As",
        "4h"
      ],
      [
        "9d",
        "Ts"
      ],
      [
        "Ad",
        "3d"
      ],
      [
        "3d",
        "As"
      ],
      [
        "3h",
        "3s"
      ],
      [
        "4s",
        "4d"
      ],
      [
        "2d",
        "9c"
      ],
      [
        "3d",
        "4d"
      ],
      [
        "3h",
        "4h"
      ],
      [
        "3h",
        "Ts"
      ],
      [
        "4d",
        "Ts"
      ],
      [
        "8c",
        "6h"
      ],
      [
        "8d",
        "6h"
      ],
      [
        "9d",
        "5h"
      ],
      [
        "9h",
        "5s"
      ],
      [
        "9s",
        "6c"
      ],
      [
        "9s",
        "Kd"
      ],
      [
        "Tc",
        "5c"
      ],
      [
        "Qs",
        "Th"
      ],
      [
        "Ad",
        "4c"
      ],
      [
        "2s",
        "Js"
      ],
      [
        "Td",
        "5d"
      ],
      [
        "Qc",
        "2c"
      ],
      [
        "Ks",
        "5d"
      ],
      [
        "2s",
        "Jh"
      ],
      [
        "6s",
        "5s"
      ],
      [
        "7h",
        "Jc"
      ],
      [
        "8s",
        "7h"
      ],
      [
        "9c",
        "3c"
      ],
      [
        "Td",
        "4c"
      ],
      [
        "Qs",
        "Kd"
      ],
      [
        "Ks",
        "2h"
      ],
      [
        "Ac",
        "Qd"
      ],
      [
        "6d",
        "8d"
      ],
      [
        "7s",
        "Qd"
      ],
      [
        "9h",
        "6c"
      ],
      [
        "As",
        "5d"
      ],
      [
        "2s",
        "Kh"
      ],
      [
        "3h",
        "Kd"
      ],
      [
        "3s",
        "5d"
      ],
      [
        "4h",
        "2h"
      ],
      [
        "4s",
        "Qd"
      ],
      [
        "8c",
        "Ts"
      ],
      [
        "9c",
        "2h"
      ],
      [
        "Qs",
        "6s"
      ],
      [
        "Ac",
        "9h"
      ],
      [
        "Ah",
        "9s"
      ],
      [
        "4h",
        "3c"
      ],
      [
        "4s",
        "6c"
      ],
      [
        "5c",
        "6c"
      ],
      [
        "7h",
        "Ad"
      ],
      [
        "Td",
        "2d"
      ],
      [
        "Kc",
        "5c"
      ],
      [
        "3h",
        "3d"
      ],
      [
        "4h",
        "6h"
      ],
      [
        "9c",
        "Js"
      ],
      [
        "Qs",
        "Jc"
      ],
      [
        "4s",
        "8s"
      ],
      [
        "8c",
        "5c"
      ],
      [
        "8d",
        "Th"
      ],
      [
        "Tc",
        "8s"
      ],
      [
        "Ac",
        "Jh"
      ],
      [
        "As",
        "Th"
      ],
      [
        "2c",
        "8h"
      ],
      [
        "8c",
        "3c"
      ],
      [
        "8d",
        "Qc"
      ],
      [
        "Tc",
        "6d"
      ],
      [
        "Ac",
        "2s"
      ],
      [
        "2c",
        "9h"
      ],
      [
        "2c",
        "Kh"
      ],
      [
        "2d",
        "Td"
      ],
      [
        "4s",
        "Jc"
      ],
      [
        "4s",
        "Qc"
      ],
      [
        "8h",
        "Jc"
      ],
      [
        "8",
        "10"
      ],
      [
        "2c",
        "Kd"
      ],
      [
        "3c",
        "4c"
      ],
      [
        "4d",
        "Jh"
      ],
      [
        "4s",
        "5h"
      ],
      [
        "6s",
        "Js"
      ],
      [
        "7d",
        "Qh"
      ],
      [
        "7s",
        "Jh"
      ],
      [
        "9c",
        "Qd"
      ],
      [
        "Ah",
        "8s"
      ],
      [
        "6c",
        "5c"
      ],
      [
        "6s",
        "9s"
      ],
      [
        "7c",
        "Ts"
      ],
      [
        "7h",
        "Qd"
      ],
      [
        "8d",
        "Js"
      ],
      [
        "2d",
        "5s"
      ],
      [
        "2h",
        "Jh"
      ],
      [
        "3d",
        "Jc"
      ],
      [
        "7c",
        "Kc"
      ],
      [
        "7d",
        "Jd"
      ],
      [
        "8c",
        "Td"
      ],
      [
        "9c",
        "Th"
      ],
      [
        "9d",
        "3h"
      ],
      [
        "Qs",
        "8s"
      ],
      [
        "4h",
        "Ks"
      ],
      [
        "6d",
        "5d"
      ],
      [
        "8c",
        "Jc"
      ],
      [
        "Qc",
        "5h"
      ],
      [
        "Ac",
        "Ts"
      ],
      [
        "2c",
        "6h"
      ],
      [
        "3c",
        "Qd"
      ],
      [
        "6s",
        "Kc"
      ],
      [
        "8d",
        "9s"
      ],
      [
        "Jd",
        "3d"
      ],
      [
        "Qc",
        "5s"
      ],
      [
        "Qs",
        "Kh"
      ],
      [
        "Ks",
        "9h"
      ],
      [
        "2s",
        "5h"
      ],
      [
        "6s",
        "4d"
      ],
      [
        "9s",
        "6h"
      ],
      [
        "Td",
        "5h"
      ],
      [
        "Ad",
        "7h"
      ],
      [
        "2h",
        "Qd"
      ],
      [
        "4h",
        "Jh"
      ],
      [
        "6d",
        "Ah"
      ],
      [
        "6s",
        "Th"
      ],
      [
        "6s",
        "Jh"
      ],
      [
        "9c",
        "Kd"
      ],
      [
        "9s",
        "4c"
      ],
      [
        "2s",
        "5d"
      ],
      [
        "6c",
        "9h"
      ],
      [
        "7d",
        "Tc"
      ],
      [
        "9c",
        "6h"
      ],
      [
        "Ad",
        "3c"
      ],
      [
        "2c",
        "3d"
      ],
      [
        "3h",
        "5h"
      ],
      [
        "3h",
        "As"
      ],
      [
        "5c",
        "Qd"
      ],
      [
        "6s",
        "7h"
      ],
      [
        "7c",
        "2d"
      ],
      [
        "7c",
        "9d"
      ],
      [
        "7c",
        "Td"
      ],
      [
        "7d",
        "Kd"
      ],
      [
        "7s",
        "Jd"
      ],
      [
        "8c",
        "Jd"
      ],
      [
        "Qc",
        "9h"
      ],
      [
        "Qh",
        "2h"
      ],
      [
        "7d",
        "3s"
      ],
      [
        "8h",
        "3s"
      ],
      [
        "Jc",
        "4c"
      ],
      [
        "Qs",
        "Ah"
      ],
      [
        "Ac",
        "2h"
      ],
      [
        "8h",
        "Th"
      ],
      [
        "9c",
        "Kh"
      ],
      [
        "Ts",
        "8c"
      ],
      [
        "Qs",
        "Td"
      ],
      [
        "3d",
        "5d"
      ],
      [
        "6s",
        "2s"
      ],
      [
        "7d",
        "5h"
      ],
      [
        "7d",
        "Jh"
      ],
      [
        "9d",
        "Th"
      ],
      [
        "Qs",
        "9h"
      ],
      [
        "4d",
        "Ks"
      ],
      [
        "5c",
        "Jh"
      ],
      [
        "7c",
        "9h"
      ],
      [
        "Kc",
        "2s"
      ],
      [
        "4d",
        "Qc"
      ],
      [
        "5h",
        "Jh"
      ],
      [
        "6c",
        "Jd"
      ],
      [
        "7c",
        "6d"
      ],
      [
        "9c",
        "8h"
      ],
      [
        "9d",
        "2s"
      ],
      [
        "Ac",
        "7h"
      ],
      [
        "As",
        "6h"
      ],
      [
        "As",
        "Tc"
      ],
      [
        "9c",
        "Jd"
      ],
      [
        "9c",
        "Ah"
      ],
      [
        "Th",
        "Jh"
      ],
      [
        "5s",
        "4c"
      ],
      [
        "7s",
        "4c"
      ],
      [
        "Qh",
        "2s"
      ],
      [
        "Qs",
        "4c"
      ],
      [
        "Kc",
        "5h"
      ],
      [
        "Ks",
        "8d"
      ],
      [
        "Ad",
        "2h"
      ],
      [
        "2d",
        "Ah"
      ],
      [
        "4s",
        "Jh"
      ],
      [
        "6c",
        "Jh"
      ],
      [
        "7h",
        "Ts"
      ],
      [
        "Qh",
        "9s"
      ],
      [
        "Ac",
        "4h"
      ],
      [
        "3c",
        "Jh"
      ],
      [
        "8s",
        "4s"
      ],
      [
        "9d",
        "4h"
      ],
      [
        "Qc",
        "6h"
      ],
      [
        "Kd",
        "5h"
      ],
      [
        "3d",
        "2h"
      ],
      [
        "7d",
        "2h"
      ],
      [
        "8h",
        "6h"
      ],
      [
        "Tc",
        "2c"
      ],
      [
        "Td",
        "5c"
      ],
      [
        "Kh",
        "5d"
      ],
      [
        "8h",
        "7s"
      ],
      [
        "8s",
        "Ks"
      ],
      [
        "Kh",
        "3c"
      ],
      [
        "4d",
        "7h"
      ],
      [
        "6d",
        "2d"
      ],
      [
        "6s",
        "3s"
      ],
      [
        "9s",
        "3s"
      ],
      [
        "Tc",
        "5d"
      ],
      [
        "Ts",
        "Ah"
      ],
      [
        "2s",
        "Qh"
      ],
      [
        "5s",
        "Js"
      ],
      [
        "6c",
        "Kc"
      ],
      [
        "7c",
        "Ks"
      ],
      [
        "7s",
        "Ac"
      ],
      [
        "9h",
        "2h"
      ],
      [
        "9h",
        "Jh"
      ],
      [
        "2c",
        "2h"
      ],
      [
        "8s",
        "Qc"
      ],
      [
        "9c",
        "6s"
      ],
      [
        "9c",
        "Ks"
      ],
      [
        "9d",
        "4s"
      ],
      [
        "9s",
        "6d"
      ],
      [
        "Td",
        "Kc"
      ],
      [
        "6h",
        "8c"
      ],
      [
        "Ks",
        "4s"
      ],
      [
        "4d",
        "7s"
      ],
      [
        "7c",
        "3h"
      ],
      [
        "7h",
        "Jd"
      ],
      [
        "8d",
        "Qh"
      ],
      [
        "9c",
        "5h"
      ],
      [
        "As",
        "3d"
      ],
      [
        "4d",
        "4s"
      ],
      [
        "4d",
        "Js"
      ],
      [
        "4h",
        "6s"
      ],
      [
        "5d",
        "Jc"
      ],
      [
        "8h",
        "2h"
      ],
      [
        "Kd",
        "3h"
      ],
      [
        "Ac",
        "7s"
      ],
      [
        "As",
        "5h"
      ],
      [
        "1",
        "90"
      ],
      [
        "7",
        "80"
      ],
      [
        "4d",
        "Kc"
      ],
      [
        "9c",
        "8s"
      ],
      [
        "Jc",
        "7s"
      ],
      [
        "Qd",
        "Th"
      ],
      [
        "Qs",
        "2s"
      ],
      [
        "Qs",
        "Tc"
      ],
      [
        "Kh",
        "2h"
      ],
      [
        "As",
        "Td"
      ],
[...]
